32576 4
, 4
. 5
the 6
in 7
of 8
and 9
der 10
und 11
die 12
to 13
a 14
: 15
) 16
( 17
is 18
" 19
von 20
for 21
- 22
den 23
zu 24
The 25
für 26
on 27
ist 28
mit 29
that 30
with 31
des 32
an 33
auf 34
/ 35
das 36
Die 37
be 38
are 39
im 40
as 41
eine 42
by 43
Sie 44
ein 45
dem 46
werden 47
es 48
from 49
this 50
I 51
sich 52
nicht 53
at 54
it 55
will 56
or 57
dass 58
have 59
not 60
In 61
was 62
sind 63
wird 64
-@@ 65
's 66
als 67
you 68
auch 69
which 70
we 71
has 72
um 73
über 74
oder 75
wir 76
Das 77
can 78
einer 79
er 80
all 81
aus 82
European 83
hat 84
zur 85
also 86
Der 87
1 88
einen 89
2 90
; 91
our 92
bei 93
am 94
sie 95
wie 96
haben 97
its 98
so 99
einem 100
? 101
EU 102
! 103
ich 104
zum 105
nach 106
This 107
können 108
s 109
er@@ 110
S@@ 111
your 112
one 113
' 114
durch 115
their 116
more 117
% 118
3 119
Commission 120
Union 121
A 122
It 123
wurde 124
P@@ 125
un@@ 126
Kommission 127
B@@ 128
new 129
T@@ 130
o 131
nur 132
ver@@ 133
kann 134
4 135
been 136
K@@ 137
but 138
an@@ 139
re@@ 140
vor 141
Es 142
H@@ 143
k@@ 144
L@@ 145
i 146
diese 147
Ich 148
m 149
D@@ 150
t@@ 151
en@@ 152
t 153
other 154
F@@ 155
s@@ 156
C@@ 157
dieser 158
in@@ 159
bis 160
Hotel 161
us 162
about 163
G@@ 164
e 165
A@@ 166
would 167
M@@ 168
de 169
uns 170
en 171
ten 172
time 173
N@@ 174
d@@ 175
only 176
te 177
W@@ 178
vom 179
E@@ 180
war 181
5 182
We 183
should 184
ing 185
they 186
10 187
up 188
V@@ 189
| 190
noch 191
sein 192
x 193
o@@ 194
& 195
R@@ 196
wenn 197
p@@ 198
be@@ 199
there 200
f@@ 201
e@@ 202
ge@@ 203
alle 204
mehr 205
aber 206
man 207
z@@ 208
do 209
these 210
O@@ 211
very 212
6 213
must 214
Wir 215
An@@ 216
g@@ 217
into 218
ab@@ 219
eines 220
sehr 221
Council 222
b@@ 223
sowie 224
c@@ 225
his 226
Europäischen 227
who 228
no 229
diesem 230
m@@ 231
out 232
daß 233
Europe 234
Ver@@ 235
ed 236
müssen 237
first 238
v@@ 239
were 240
Mr 241
States 242
than 243
ihre 244
al@@ 245
between 246
y@@ 247
like 248
such 249
Member 250
zwischen 251
y 252
ch@@ 253
unter 254
n@@ 255
system 256
7 257
8 258
use 259
people 260
Im 261
i@@ 262
Z@@ 263
well 264
most 265
years 266
any 267
ein@@ 268
countries 269
gibt 270
li@@ 271
if 272
g 273
he 274
ers 275
now 276
Vehicles 277
st@@ 278
d 279
year 280
J@@ 281
I@@ 282
work 283
km 284
de@@ 285
ter 286
ar@@ 287
l@@ 288
sch@@ 289
a@@ 290
aus@@ 291
information 292
two 293
when 294
20 295
di@@ 296
l 297
k 298
al 299
el@@ 300
h@@ 301
President 302
gen 303
ent@@ 304
30 305
important 306
able 307
end 308
many 309
u@@ 310
ation 311
Herr 312
Diese 313
ts 314
Mitgliedstaaten 315
dieses 316
EUR 317
need 318
them 319
3@@ 320
Ihnen 321
da 322
world 323
anderen 324
ung 325
Re@@ 326
Ab@@ 327
on@@ 328
my 329
wurden 330
some 331
support 332
way 333
keine 334
what 335
U@@ 336
si@@ 337
5@@ 338
made 339
over 340
le 341
Sch@@ 342
Jahr 343
bietet 344
.@@ 345
4@@ 346
n 347
9 348
ge 349
neue 350
j@@ 351
had 352
ro@@ 353
make 354
es@@ 355
me 356
Mit 357
auf@@ 358
15 359
or@@ 360
ti@@ 361
hotel 362
C 363
12 364
market 365
ri@@ 366
mm 367
Parliament 368
take 369
ate 370
r@@ 371
ungs@@ 372
view 373
where 374
development 375
€ 376
area 377
Aus@@ 378
In@@ 379
Ihre 380
For 381
seine 382
w@@ 383
muss 384
Ein 385
report 386
6@@ 387
at@@ 388
x@@ 389
gegen 390
Rat 391
Europa 392
18@@ 393
50 394
hier 395
p 396
2@@ 397
available 398
place 399
unsere 400
c 401
under 402
Unternehmen 403
may 404
neuen 405
+ 406
through 407
Europäische 408
part 409
S 410
offers 411
zwei 412
because 413
Ein@@ 414
B 415
Entwicklung 416
zu@@ 417
just 418
Y@@ 419
used 420
vor@@ 421
see 422
Fahrzeuge 423
Hotels 424
möchte 425
am@@ 426
Jahren 427
order 428
sten 429
free 430
immer 431
after 432
St@@ 433
andere 434
D 435
em@@ 436
real 437
et@@ 438
7@@ 439
Menschen 440
damit 441
international 442
um@@ 443
even 444
policy 445
number 446
room 447
Zeit 448
those 449
th@@ 450
ungen 451
'@@ 452
u 453
per 454
ihrer 455
ern 456
Al@@ 457
E 458
diesen 459
über@@ 460
data 461
same 462
right 463
economic 464
e-@@ 465
T 466
X@@ 467
Jahre 468
it@@ 469
being 470
11 471
Präsident 472
ab 473
100 474
within 475
EU-@@ 476
se 477
b 478
possible 479
8@@ 480
M 481
dies 482
public 483
2010 484
ohne 485
products 486
z 487
dann 488
As 489
house 490
op@@ 491
ra@@ 492
2009 493
There 494
25 495
Er@@ 496
ischen 497
00 498
heute 499
liegt 500
good 501
services 502
All 503
finden 504
Bericht 505
ger 506
Eine 507
Vor@@ 508
ar 509
Be@@ 510
Informationen 511
unserer 512
here 513
against 514
Für 515
Welt 516
2015 517
ag@@ 518
both 519
bereits 520
If 521
Haus 522
lich 523
example 524
is@@ 525
ad@@ 526
9@@ 527
ur@@ 528
allen 529
h 530
ch 531
without 532
le@@ 533
Parlament 534
ens 535
set 536
sondern 537
Germany 538
ische 539
seiner 540
lo@@ 541
Maßnahmen 542
could 543
bar 544
own 545
million 546
different 547
[ 548
ated 549
how 550
jedoch 551
ale 552
] 553
tes 554
You 555
el 556
as@@ 557
her 558
-S@@ 559
ert 560
country 561
denen 562
sp@@ 563
political 564
et 565
st 566
co@@ 567
habe 568
2008 569
Rahmen 570
16 571
10@@ 572
liche 573
On 574
social 575
18 576
0@@ 577
europäischen 578
eren 579
lichen 580
With 581
But 582
ber@@ 583
rights 584
ul@@ 585
day 586
service 587
dis@@ 588
Bereich 589
find 590
cm 591
then 592
P 593
40 594
enden 595
au@@ 596
level 597
2011 598
national 599
Wenn 600
sollte 601
Er 602
high 603
process 604
including 605
estate 606
Ar@@ 607
China 608
before 609
14 610
last 611
Zimmer 612
jetzt 613
future 614
does 615
to@@ 616
today 617
already 618
us@@ 619
said 620
viele 621
Dies 622
Ro@@ 623
company 624
mich 625
2007 626
energy 627
machen 628
land 629
Frau 630
R 631
Daten 632
case 633
Art 634
O 635
rooms 636
13 637
systems 638
ihren 639
ersten 640
financial 641
Di@@ 642
2013 643
access 644
sh@@ 645
Zusammenarbeit 646
ke 647
quality 648
L 649
Co@@ 650
2012 651
Heavy 652
still 653
measures 654
want 655
based 656
Machines 657
24 658
ak@@ 659
further 660
seit 661
three 662
sk@@ 663
therefore 664
ent 665
site 666
vi@@ 667
ter@@ 668
V 669
ihr 670
since 671
Mar@@ 672
September 673
X 674
ting 675
during 676
17@@ 677
point 678
each 679
te@@ 680
city 681
Deutschland 682
2014 683
sen 684
much 685
Auf 686
drei 687
II 688
located 689
life 690
great 691
At 692
F 693
German 694
f 695
best 696
GmbH 697
dazu 698
ste 699
geht 700
entfernt 701
AG 702
Li@@ 703
business 704
während 705
Mo@@ 706
Beispiel 707
Un@@ 708
r 709
der@@ 710
15@@ 711
sollten 712
November 713
ck@@ 714
waren 715
2006 716
wo 717
im@@ 718
Nach 719
geben 720
human 721
zi@@ 722
ie 723
ations 724
_ 725
course 726
Lage 727
Ch@@ 728
ende 729
ni@@ 730
wieder 731
ol@@ 732
small 733
April 734
Land 735
ine 736
areas 737
go 738
se@@ 739
help 740
Seite 741
System 742
online 743
particular 744
0 745
ler 746
G 747
form 748
® 749
ganz 750
ates 751
ei@@ 752
K 753
companies 754
insbesondere 755
Group 756
Stadt 757
Sp@@ 758
Frage 759
get 760
USA 761
ac@@ 762
60 763
bo@@ 764
Internet 765
Teil 766
kommen 767
einige 768
la@@ 769
con@@ 770
weil 771
ly 772
om@@ 773
production 774
US 775
selbst 776
ins 777
Alle 778
Berlin 779
Unterstützung 780
Euro 781
soll 782
Con@@ 783
large 784
ä@@ 785
unter@@ 786
20@@ 787
cooperation 788
programme 789
gut 790
old 791
TV 792
ating 793
men 794
ger@@ 795
Arbeit 796
Bo@@ 797
He 798
power 799
bi@@ 800
following 801
every 802
inter@@ 803
ten@@ 804
16@@ 805
2005 806
darauf 807
ted 808
project 809
2000 810
Bei 811
ap@@ 812
children 813
management 814
Commissioner 815
New 816
less 817
long 818
United 819
agreement 820
Community 821
These 822
offer 823
water 824
means 825
gen@@ 826
provide 827
stellen 828
unseren 829
möglich 830
pro@@ 831
situation 832
Car@@ 833
-P@@ 834
chen 835
line 836
ensure 837
21 838
law 839
viel 840
17 841
know 842
age 843
stehen 844
ant 845
Po@@ 846
That 847
19@@ 848
fact 849
erhalten 850
schen 851
ere 852
allem 853
seinen 854
a-@@ 855
car 856
pro 857
sehen 858
ne@@ 859
Ländern 860
mo@@ 861
qu@@ 862
che 863
ob 864
security 865
beim 866
ed@@ 867
2004 868
19 869
open 870
group 871
end@@ 872
position 873
common 874
too 875
Kon@@ 876
steht 877
research 878
protection 879
22 880
N 881
Länder 882
würde 883
t-@@ 884
Artikel 885
ing@@ 886
dafür 887
ous 888
main 889
os 890
weitere 891
große 892
next 893
together 894
International 895
En@@ 896
proposal 897
current 898
den@@ 899
Ziel 900
trade 901
.com 902
private 903
hatte 904
ne 905
40@@ 906
em 907
while 908
region 909
product 910
nun 911
befindet 912
gi@@ 913
days 914
change 915
ve 916
her@@ 917
't 918
> 919
ds 920
necessary 921
say 922
Ihr 923
tions 924
schon 925
back 926
so@@ 927
ung@@ 928
letzten 929
ma@@ 930
ko@@ 931
However 932
Auf@@ 933
around 934
ina 935
Th@@ 936
mir 937
il@@ 938
po@@ 939
taken 940
denn 941
Als 942
cannot 943
working 944
1@@ 945
using 946
Auch 947
bin 948
lassen 949
August 950
conditions 951
besteht 952
elle 953
Airport 954
ci@@ 955
1.@@ 956
tion 957
gehen 958
2003 959
So 960
ings 961
few 962
no@@ 963
do@@ 964
basis 965
Programm 966
Ende 967
aid 968
deren 969
ges 970
ze 971
Kinder 972
second 973
control 974
ec@@ 975
weiter 976
State 977
action 978
80 979
erste 980
industry 981
Ri@@ 982
th 983
mi@@ 984
Aber 985
großen 986
Fragen 987
eb@@ 988
clear 989
Lo@@ 990
ene 991
ans 992
special 993
ken 994
gel@@ 995
hi@@ 996
ens@@ 997
Region 998
rules 999
To 1000
Tag 1001
Nähe 1002
man@@ 1003
12@@ 1004
ber 1005
state 1006
Dieses 1007
price 1008
version 1009
full 1010
Ma@@ 1011
aller 1012
24@@ 1013
Verfügung 1014
ster 1015
Bi@@ 1016
ago 1017
14@@ 1018
Pro@@ 1019
shall 1020
ic 1021
come 1022
worden 1023
isch 1024
sector 1025
wollen 1026
ck 1027
Vi@@ 1028
again 1029
believe 1030
30@@ 1031
give 1032
ma 1033
better 1034
Sicherheit 1035
W 1036
question 1037
Richtlinie 1038
Personen 1039
ü@@ 1040
field 1041
ut@@ 1042
present 1043
May 1044
Und 1045
light 1046
90 1047
verschiedenen 1048
Fall 1049
Committee 1050
growth 1051
needs 1052
23 1053
welche 1054
Kunden 1055
einfach 1056
issue 1057
etwas 1058
think 1059
ser@@ 1060
centre 1061
ator 1062
put 1063
meine 1064
Par@@ 1065
eg@@ 1066
ou@@ 1067
always 1068
Zu@@ 1069
tra@@ 1070
sche 1071
down 1072
citizens 1073
An 1074
internationalen 1075
27 1076
become 1077
dabei 1078
given 1079
France 1080
H 1081
Ko@@ 1082
Produkte 1083
far 1084
Minister 1085
red 1086
Bedeutung 1087
bringen 1088
Cars 1089
name 1090
problem 1091
28 1092
cht 1093
Herrn 1094
software 1095
ra 1096
erte 1097
result 1098
found 1099
local 1100
technology 1101
stellt 1102
all@@ 1103
ru@@ 1104
Ni@@ 1105
politischen 1106
ally 1107
ja 1108
* 1109
2002 1110
ana 1111
Leben 1112
Ge@@ 1113
and@@ 1114
Mon@@ 1115
air 1116
200 1117
su@@ 1118
Lu@@ 1119
res 1120
experience 1121
ads 1122
projects 1123
And 1124
v 1125
45@@ 1126
é@@ 1127
Vorschlag 1128
AR@@ 1129
sagen 1130
range 1131
innerhalb 1132
Staaten 1133
Am 1134
13@@ 1135
kon@@ 1136
After 1137
Wie 1138
bieten 1139
Regierung 1140
problems 1141
Our 1142
activities 1143
World 1144
ir@@ 1145
building 1146
health 1147
Si@@ 1148
global 1149
Website 1150
est@@ 1151
ff@@ 1152
beiden 1153
provided 1154
various 1155
Inter@@ 1156
another 1157
art 1158
ER@@ 1159
certain 1160
role 1161
legal 1162
Unter@@ 1163
mann 1164
They 1165
fen 1166
June 1167
Weg 1168
near 1169
führen 1170
les 1171
file 1172
zen 1173
enen 1174
sti@@ 1175
modern 1176
family 1177
period 1178
ex@@ 1179
design 1180
pi@@ 1181
La 1182
Preis 1183
Dr. 1184
ali@@ 1185
Ad@@ 1186
results 1187
70 1188
eigenen 1189
$ 1190
Pi@@ 1191
ep@@ 1192
Gu@@ 1193
500 1194
tun 1195
par@@ 1196
adopted 1197
Service 1198
mon@@ 1199
IN@@ 1200
ho@@ 1201
alen 1202
ons 1203
stand 1204
sowohl 1205
licher 1206
ete 1207
ka 1208
Software 1209
several 1210
government 1211
third 1212
station 1213
Hilfe 1214
Über@@ 1215
Möglichkeit 1216
Tra@@ 1217
pre@@ 1218
la 1219
erreichen 1220
25@@ 1221
key 1222
away 1223
Juni 1224
50@@ 1225
ad 1226
specific 1227
General 1228
ell 1229
wichtig 1230
vielen 1231
Mio. 1232
Namen 1233
him 1234
ms 1235
Zukunft 1236
erung 1237
fully 1238
Recht 1239
IS@@ 1240
decision 1241
y-@@ 1242
however 1243
AS@@ 1244
weniger 1245
Weise 1246
26 1247
ek@@ 1248
2001 1249
issues 1250
ce 1251
account 1252
ding 1253
side 1254
Millionen 1255
ö@@ 1256
particularly 1257
PC 1258
2.@@ 1259
December 1260
erten 1261
Or@@ 1262
könnte 1263
ment 1264
ihnen 1265
ange@@ 1266
De@@ 1267
fi@@ 1268
Rolle 1269
ell@@ 1270
sen@@ 1271
environment 1272
doch 1273
# 1274
continue 1275
stay 1276
Hier 1277
transport 1278
ischer 1279
month 1280
gung 1281
House 1282
etwa 1283
kommt 1284
chten 1285
until 1286
One 1287
increase 1288
EN 1289
nen 1290
whether 1291
Ex@@ 1292
why 1293
ati@@ 1294
Gemeinschaft 1295
application 1296
via 1297
sc@@ 1298
did 1299
arbeiten 1300
ty 1301
davon 1302
Ihrer 1303
Bau@@ 1304
El@@ 1305
gegenüber 1306
alles 1307
women 1308
direkt 1309
book 1310
Dezember 1311
ches 1312
general 1313
especially 1314
gu@@ 1315
unterstützen 1316
besonders 1317
Thema 1318
Bar@@ 1319
whole 1320
When 1321
major 1322
= 1323
di 1324
00@@ 1325
What 1326
terms 1327
cht@@ 1328
works 1329
enten 1330
daher 1331
tive 1332
close 1333
ker 1334
ob@@ 1335
January 1336
CH@@ 1337
single 1338
ph@@ 1339
35 1340
ard 1341
Problem 1342
hand 1343
ah@@ 1344
bereich 1345
list 1346
Q@@ 1347
ta@@ 1348
wäre 1349
sub@@ 1350
ors 1351
food 1352
unterstützt 1353
members 1354
Gra@@ 1355
ellen 1356
July 1357
fast 1358
play 1359
Um@@ 1360
war@@ 1361
ability 1362
AN@@ 1363
ner 1364
45 1365
Do@@ 1366
Uhr 1367
Version 1368
Finanz@@ 1369
debate 1370
page 1371
Bank 1372
Museum 1373
est 1374
contact 1375
Bürger 1376
sin@@ 1377
Mai 1378
du 1379
ft 1380
start 1381
home 1382
Le@@ 1383
kein 1384
av@@ 1385
Dieser 1386
len 1387
No 1388
wi@@ 1389
San 1390
Gruppe 1391
gh@@ 1392
rate 1393
gt 1394
Frauen 1395
sch 1396
meeting 1397
March 1398
points 1399
Juli 1400
ts@@ 1401
per@@ 1402
-B@@ 1403
Windows 1404
living 1405
months 1406
2016 1407
Ihren 1408
non-@@ 1409
° 1410
einmal 1411
Cor@@ 1412
framework 1413
halten 1414
tri@@ 1415
AL@@ 1416
total 1417
nach@@ 1418
zusammen 1419
authorities 1420
ise 1421
Ent@@ 1422
ST@@ 1423
ari@@ 1424
März 1425
liches 1426
person 1427
bed 1428
26@@ 1429
ben 1430
Politik 1431
Rates 1432
ses 1433
crisis 1434
Was 1435
Kalender 1436
eh@@ 1437
und@@ 1438
provides 1439
among 1440
towards 1441
look 1442
31 1443
EN@@ 1444
Ber@@ 1445
U 1446
ets 1447
So@@ 1448
Haupt@@ 1449
Her@@ 1450
No@@ 1451
Januar 1452
Y 1453
Probleme 1454
personal 1455
bel@@ 1456
29 1457
eln 1458
tige 1459
implementation 1460
ary 1461
ER 1462
customers 1463
Europcar 1464
standards 1465
kl@@ 1466
making 1467
training 1468
website 1469
23@@ 1470
ca 1471
value 1472
Neu@@ 1473
individual 1474
unser 1475
Ort 1476
du@@ 1477
Zusammenhang 1478
for@@ 1479
Parlaments 1480
,00 1481
Schutz 1482
seinem 1483
ative 1484
ha@@ 1485
Wirtschaft 1486
Mi@@ 1487
budget 1488
cher 1489
da@@ 1490
E-@@ 1491
hinaus 1492
darüber 1493
Bilder 1494
To@@ 1495
Umsetzung 1496
fer@@ 1497
wissen 1498
Arbeits@@ 1499
respect 1500
let 1501
Tri@@ 1502
itself 1503
Calendar 1504
Form 1505
minutes 1506
developed 1507
create 1508
Ã 1509
October 1510
progress 1511
effective 1512
res@@ 1513
called 1514
enjoy 1515
include 1516
tr@@ 1517
subject 1518
Restaurant 1519
vo@@ 1520
vier 1521
ach@@ 1522
economy 1523
öffentlichen 1524
hope 1525
tic 1526
re 1527
sion 1528
Class 1529
beautiful 1530
ori@@ 1531
sollen 1532
times 1533
Geschichte 1534
bu@@ 1535
least 1536
ES@@ 1537
once 1538
UN@@ 1539
meisten 1540
Kar@@ 1541
Oktober 1542
young 1543
AT@@ 1544
wei@@ 1545
Flughafen 1546
Zentrum 1547
dessen 1548
Markt 1549
ia 1550
europäische 1551
d-@@ 1552
verwendet 1553
Dis@@ 1554
200@@ 1555
interest 1556
Seiten 1557
nationalen 1558
son 1559
Se@@ 1560
Ho@@ 1561
regional 1562
1. 1563
besten 1564
ender 1565
Paris 1566
Zugang 1567
four 1568
Lösung 1569
institutions 1570
Gesellschaft 1571
min@@ 1572
Bu@@ 1573
accommodation 1574
gra@@ 1575
tischen 1576
ver 1577
Ergebnisse 1578
macht 1579
Man@@ 1580
enz@@ 1581
Qualität 1582
address 1583
thousands 1584
Moodle 1585
addition 1586
go@@ 1587
wirklich 1588
technical 1589
safety 1590
Concept 1591
Mittel 1592
Wasser@@ 1593
bzw. 1594
en-@@ 1595
gilt 1596
zeigt 1597
standard 1598
Am@@ 1599
text 1600
town 1601
due 1602
often 1603
costs 1604
Please 1605
positive 1606
Frankreich 1607
natural 1608
Court 1609
network 1610
Grund@@ 1611
bl@@ 1612
ass@@ 1613
she 1614
fall 1615
approach 1616
competition 1617
IP 1618
politische 1619
show 1620
ure 1621
af@@ 1622
solution 1623
Qu@@ 1624
ideal 1625
33@@ 1626
berg 1627
unserem 1628
low 1629
sea 1630
matter 1631
ess@@ 1632
Platz 1633
ihm 1634
program 1635
32 1636
markets 1637
Programme 1638
jeder 1639
prices 1640
je 1641
ern@@ 1642
ster@@ 1643
Verfahren 1644
investment 1645
CO@@ 1646
God 1647
Da 1648
lan@@ 1649
er-@@ 1650
0.@@ 1651
Mor@@ 1652
responsible 1653
au 1654
above 1655
Treaty 1656
Durch 1657
3.@@ 1658
up@@ 1659
known 1660
statt 1661
resources 1662
off 1663
Su@@ 1664
ihn 1665
2-@@ 1666
verfügt 1667
ta 1668
rei@@ 1669
car@@ 1670
held 1671
done 1672
hin 1673
ry 1674
mit@@ 1675
Grundlage 1676
game 1677
els 1678
300 1679
ationen 1680
nehmen 1681
requirements 1682
1999 1683
left 1684
IT@@ 1685
mis@@ 1686
ID 1687
ihrem 1688
legislation 1689
additional 1690
society 1691
Rück@@ 1692
material 1693
ren@@ 1694
Park 1695
led 1696
gs 1697
lu@@ 1698
gemacht 1699
ters 1700
complete 1701
Ebene 1702
aten 1703
he@@ 1704
del 1705
05 1706
geb@@ 1707
ran@@ 1708
National 1709
table 1710
IC@@ 1711
Anwendung 1712
ic@@ 1713
London 1714
content 1715
wer@@ 1716
ai@@ 1717
Bild 1718
w 1719
ß@@ 1720
University 1721
policies 1722
history 1723
zurück@@ 1724
environmental 1725
really 1726
tigen 1727
zwar 1728
tische 1729
führt 1730
weiterhin 1731
strategy 1732
27@@ 1733
Directive 1734
forward 1735
ebenfalls 1736
Clip 1737
type 1738
meiner 1739
me@@ 1740
space 1741
chte 1742
Com@@ 1743
Spiel 1744
opportunity 1745
br@@ 1746
Geschäfts@@ 1747
eri@@ 1748
rund 1749
ast@@ 1750
Future 1751
Immobilienanzeigen 1752
ties 1753
Gi@@ 1754
Projekt 1755
solutions 1756
pool 1757
regard 1758
dort 1759
s-@@ 1760
setzen 1761
Italy 1762
makes 1763
heart 1764
5-@@ 1765
eu@@ 1766
ves 1767
board 1768
Information 1769
pl@@ 1770
Fi@@ 1771
LE@@ 1772
leben 1773
required 1774
body 1775
mer@@ 1776
Bel@@ 1777
muß 1778
ino 1779
weltweit 1780
ang 1781
little 1782
01 1783
tor@@ 1784
size 1785
1,@@ 1786
ling 1787
yet 1788
60@@ 1789
Minuten 1790
Anzahl 1791
que 1792
Förderung 1793
others 1794
fo@@ 1795
är@@ 1796
sei 1797
taking 1798
visit 1799
under@@ 1800
cultural 1801
fl@@ 1802
nächsten 1803
alten 1804
RO@@ 1805
1-@@ 1806
location 1807
parties 1808
28@@ 1809
groups 1810
lin@@ 1811
com@@ 1812
member 1813
mal 1814
things 1815
form@@ 1816
eller 1817
Bitte 1818
user 1819
wide 1820
Details 1821
indem 1822
@ 1823
ents 1824
entwickelt 1825
ance 1826
directly 1827
proposed 1828
Blick 1829
enn@@ 1830
views 1831
Bereichen 1832
took 1833
Höhe 1834
rates 1835
co 1836
Reihe 1837
going 1838
according 1839
weit 1840
plan 1841
importance 1842
75 1843
force 1844
allow 1845
night 1846
parts 1847
event 1848
Set 1849
Dienstleistungen 1850
sogar 1851
ys 1852
money 1853
step 1854
gas 1855
education 1856
gute 1857
hei@@ 1858
jeden 1859
natürlich 1860
va 1861
strong 1862
3-@@ 1863
recent 1864
möchten 1865
French 1866
Kollegen 1867
something 1868
ES 1869
cases 1870
eten 1871
lichkeit 1872
wor@@ 1873
Bad 1874
active 1875
Google 1876
efforts 1877
EM@@ 1878
Mit@@ 1879
ev@@ 1880
Tage 1881
equipped 1882
-F@@ 1883
Europas 1884
recht 1885
proposals 1886
century 1887
pp@@ 1888
live 1889
February 1890
currently 1891
Situation 1892
Familie 1893
Russia 1894
improve 1895
á@@ 1896
request 1897
Kommissar 1898
created 1899
S-@@ 1900
ca. 1901
mat@@ 1902
call 1903
bekannt 1904
added 1905
Um 1906
etc 1907
team 1908
Februar 1909
Sh@@ 1910
Z 1911
City 1912
tern 1913
short 1914
music 1915
ef@@ 1916
Ziele 1917
tionen 1918
Israel 1919
dern 1920
einigen 1921
Forschung 1922
Design 1923
nature 1924
having 1925
date 1926
MA@@ 1927
risk 1928
ski 1929
mar@@ 1930
files 1931
hand@@ 1932
comes 1933
vote 1934
mer 1935
existing 1936
out@@ 1937
ur 1938
ats 1939
Tausende 1940
lot 1941
durch@@ 1942
zeit 1943
beach 1944
ity 1945
ang@@ 1946
wichtige 1947
events 1948
thus 1949
hin@@ 1950
ste@@ 1951
South 1952
AC@@ 1953
tax 1954
Grund 1955
Entscheidung 1956
Per@@ 1957
apartment 1958
words 1959
capital 1960
Küche 1961
opinion 1962
performance 1963
ism 1964
Rechts@@ 1965
bre@@ 1966
ss@@ 1967
Euro@@ 1968
min 1969
daran 1970
From 1971
schaffen 1972
billion 1973
Au@@ 1974
big 1975
voll 1976
restaurant 1977
easy 1978
top 1979
Ti@@ 1980
resolution 1981
Kosten 1982
connection 1983
features 1984
Republic 1985
regions 1986
employment 1987
IT 1988
EC@@ 1989
verschiedene 1990
central 1991
bus 1992
fin@@ 1993
Verordnung 1994
Karte 1995
Bezug 1996
Your 1997
RE@@ 1998
spielen 1999
past 2000
ations@@ 2001
concerned 2002
Rechte 2003
Rei@@ 2004
questions 2005
men@@ 2006
leading 2007
unternehmen 2008
Bedingungen 2009
gemeinsam 2010
DI@@ 2011
nutzen 2012
gten 2013
center 2014
Nor@@ 2015
bitte 2016
the@@ 2017
é 2018
early 2019
ders 2020
5.@@ 2021
internationale 2022
AM@@ 2023
Strategie 2024
EL@@ 2025
Ru@@ 2026
bedeutet 2027
har@@ 2028
gehört 2029
kind 2030
series 2031
06 2032
takes 2033
Kirche 2034
film 2035
wirtschaftlichen 2036
Japan 2037
excellent 2038
ausge@@ 2039
Ihrem 2040
gemeinsamen 2041
ven@@ 2042
Verbindung 2043
Partner 2044
ther@@ 2045
share 2046
sicher 2047
kan@@ 2048
scher 2049
internal 2050
hal@@ 2051
over@@ 2052
4.@@ 2053
language 2054
Immobilienportal 2055
Nutzung 2056
Wi@@ 2057
aufgrund 2058
Aus 2059
deutlich 2060
besser 2061
met@@ 2062
Free 2063
American 2064
David 2065
partners 2066
related 2067
Umwelt@@ 2068
responsibility 2069
P-@@ 2070
­ 2071
tim@@ 2072
Images 2073
Auswirkungen 2074
welcome 2075
designed 2076
sagte 2077
Italien 2078
29@@ 2079
mu@@ 2080
applications 2081
str@@ 2082
Mitglieder 2083
ging 2084
ing-@@ 2085
cor@@ 2086
tor 2087
EC 2088
A-@@ 2089
climate 2090
RA@@ 2091
changes 2092
Inhalt 2093
Regionen 2094
Article 2095
He@@ 2096
ermöglicht 2097
kleinen 2098
los 2099
Ergebnis 2100
meet 2101
Here 2102
lange 2103
wish 2104
erreicht 2105
handelt 2106
1998 2107
tig 2108
sozialen 2109
Management 2110
week 2111
tung 2112
reason 2113
states 2114
rather 2115
guests 2116
Meinung 2117
For@@ 2118
links 2119
includes 2120
appropriate 2121
ore 2122
By 2123
double 2124
St. 2125
chen@@ 2126
OR@@ 2127
along 2128
gesagt 2129
Einsatz 2130
2,@@ 2131
difficult 2132
Ukraine 2133
park 2134
Verbesserung 2135
media 2136
tags 2137
bleiben 2138
five 2139
Ger@@ 2140
sustainable 2141
ded 2142
schnell 2143
moment 2144
Haushalts@@ 2145
tu@@ 2146
Sicherheits@@ 2147
pe@@ 2148
Gebiet 2149
sts 2150
capacity 2151
oni@@ 2152
² 2153
ask 2154
lage 2155
peace 2156
reform 2157
ton 2158
bring 2159
cken 2160
effect 2161
gel 2162
9.@@ 2163
essential 2164
holiday 2165
My 2166
might 2167
longer 2168
09 2169
innovative 2170
darin 2171
Hand@@ 2172
Wei@@ 2173
Sk@@ 2174
alt 2175
ET@@ 2176
ano 2177
established 2178
Richtung 2179
Development 2180
test 2181
bereit 2182
Home 2183
supply 2184
Gar@@ 2185
hours 2186
ful 2187
al-@@ 2188
Mrs 2189
sta@@ 2190
gestellt 2191
ade 2192
needed 2193
presented 2194
cks 2195
developing 2196
communication 2197
comp@@ 2198
Spain 2199
gegeben 2200
road 2201
Person 2202
weiteren 2203
principle 2204
Du@@ 2205
m2 2206
erst 2207
Möglichkeiten 2208
DE 2209
Land@@ 2210
included 2211
upon 2212
moodle 2213
context 2214
helfen 2215
liegen 2216
front 2217
equipment 2218
bg-bab 2219
Beitrag 2220
C-@@ 2221
ite 2222
direct 2223
gesamten 2224
keinen 2225
Pre@@ 2226
potential 2227
negotiations 2228
rec@@ 2229
konnte 2230
7.@@ 2231
born 2232
Nach@@ 2233
Bal@@ 2234
Ak@@ 2235
insgesamt 2236
greater 2237
Jo@@ 2238
verfügbar 2239
almost 2240
sed 2241
wegen 2242
PS 2243
thing 2244
ess 2245
directive 2246
ausgestattet 2247
z.B. 2248
sm@@ 2249
erforderlich 2250
ll@@ 2251
att@@ 2252
gn@@ 2253
enthält 2254
ales 2255
term 2256
än@@ 2257
sure 2258
significant 2259
built 2260
Mag@@ 2261
Behörden 2262
wichtigsten 2263
America 2264
55 2265
achieve 2266
fest 2267
Deshalb 2268
map 2269
Kur@@ 2270
Interesse 2271
tion@@ 2272
33 2273
procedure 2274
users 2275
95 2276
La@@ 2277
Jesus 2278
Wirtschafts@@ 2279
Beziehungen 2280
programmes 2281
anti@@ 2282
solche 2283
attention 2284
Markt@@ 2285
findet 2286
SA 2287
genau 2288
Republik 2289
Abkommen 2290
08 2291
Africa 2292
model 2293
07 2294
lead 2295
English 2296
themselves 2297
OS 2298
impact 2299
customer 2300
Außerdem 2301
machine 2302
Today 2303
later 2304
across 2305
success 2306
sive 2307
eng@@ 2308
hr@@ 2309
Woche 2310
ette 2311
ology 2312
iert 2313
Wohnung 2314
Team 2315
Fl@@ 2316
det 2317
sa@@ 2318
Barcelona 2319
einzelnen 2320
Detailed 2321
amount 2322
tel 2323
Mal@@ 2324
integration 2325
Fo@@ 2326
03 2327
4-@@ 2328
einschließlich 2329
ums 2330
02 2331
Datei 2332
More 2333
Bio@@ 2334
famous 2335
Jahres 2336
48 2337
neu 2338
dar 2339
Some 2340
folgenden 2341
bathroom 2342
unique 2343
Villa 2344
fe@@ 2345
kleine 2346
Institute 2347
Center 2348
tur@@ 2349
Wasser 2350
tre@@ 2351
Go@@ 2352
lei@@ 2353
gl@@ 2354
fer 2355
latest 2356
pages 2357
Gen@@ 2358
43 2359
nichts 2360
sto@@ 2361
36 2362
Product 2363
please 2364
ways 2365
tel@@ 2366
Schritt 2367
Hoch@@ 2368
Download 2369
o-@@ 2370
Verhandlungen 2371
persons 2372
gkeit 2373
Systems 2374
quite 2375
zurück 2376
Man 2377
schaft 2378
Liste 2379
fünf 2380
würden 2381
care 2382
breakfast 2383
Daten@@ 2384
ron@@ 2385
either 2386
shows 2387
ps 2388
involved 2389
beispielsweise 2390
wa@@ 2391
gab 2392
ben@@ 2393
34 2394
ence 2395
are@@ 2396
zeigen 2397
increased 2398
mobile 2399
facilities 2400
treatment 2401
zusammen@@ 2402
150 2403
Im@@ 2404
bare 2405
Comp@@ 2406
Falun 2407
6.@@ 2408
Austria 2409
,@@ 2410
dürfen 2411
agreed 2412
42 2413
East 2414
Aktivitäten 2415
Lin@@ 2416
agree 2417
workers 2418
8.@@ 2419
gte 2420
card 2421
gleichen 2422
hard 2423
focus 2424
gerade 2425
Wachstum 2426
simply 2427
lat@@ 2428
stage 2429
gemeinsame 2430
buchen 2431
kitchen 2432
besch@@ 2433
1997 2434
press 2435
higher 2436
Welt@@ 2437
net 2438
operation 2439
knowledge 2440
ON@@ 2441
levels 2442
stre@@ 2443
Fach@@ 2444
Doch 2445
Vereinigten 2446
successful 2447
hatten 2448
partner 2449
final 2450
mehrere 2451
EP@@ 2452
ever 2453
ziehen 2454
legen 2455
Detaillierte 2456
rental 2457
schi@@ 2458
cost 2459
tt@@ 2460
brauchen 2461
tiert 2462
IP@@ 2463
ation@@ 2464
sel@@ 2465
floor 2466
Lösungen 2467
darf 2468
note 2469
bei@@ 2470
land@@ 2471
Initiative 2472
relevant 2473
concerning 2474
IS 2475
ki@@ 2476
video 2477
Verwendung 2478
Vorteile 2479
freedom 2480
received 2481
original 2482
46@@ 2483
kg 2484
materials 2485
ages 2486
Centre 2487
Preise 2488
könnten 2489
funds 2490
0,@@ 2491
seen 2492
enthalten 2493
04 2494
develop 2495
D-@@ 2496
relations 2497
nämlich 2498
ente 2499
Auswahl 2500
outside 2501
initiative 2502
mel@@ 2503
Hinblick 2504
ges@@ 2505
ini@@ 2506
Day 2507
Meer 2508
construction 2509
Projekte 2510
CD 2511
Online 2512
tik@@ 2513
walk 2514
zeit@@ 2515
Portugal 2516
gesch@@ 2517
former 2518
ub@@ 2519
bau@@ 2520
Investitionen 2521
voll@@ 2522
true 2523
published 2524
Ac@@ 2525
35@@ 2526
download 2527
ak 2528
ro 2529
staff 2530
baren 2531
ann@@ 2532
regulation 2533
Mat@@ 2534
assistance 2535
eter 2536
Monatsansicht 2537
isches 2538
ord@@ 2539
Gesundheit 2540
Kultur 2541
image 2542
Ta@@ 2543
auszu@@ 2544
apply 2545
Apartments 2546
oft 2547
Unsere 2548
Gesamt@@ 2549
property 2550
never 2551
Har@@ 2552
York 2553
gern 2554
Energie 2555
OS@@ 2556
80@@ 2557
Presidency 2558
thank 2559
400 2560
Industrie 2561
LA@@ 2562
Produktion 2563
office 2564
Sa@@ 2565
Fraktion 2566
industrial 2567
community 2568
Fu@@ 2569
code 2570
War@@ 2571
aler 2572
Integration 2573
sions 2574
Spiele 2575
bank 2576
Mitglied 2577
package 2578
Mal 2579
foreign 2580
message 2581
app@@ 2582
receive 2583
ments 2584
jahr 2585
.000 2586
entire 2587
rapporteur 2588
Vertrag 2589
reach 2590
traditional 2591
decided 2592
Mu@@ 2593
Sal@@ 2594
enz 2595
Central 2596
half 2597
Universität 2598
Vorschläge 2599
soon 2600
Auto 2601
verbessern 2602
allows 2603
derzeit 2604
goods 2605
Me@@ 2606
fest@@ 2607
zer 2608
programm 2609
klar 2610
situated 2611
exchange 2612
Ei@@ 2613
Nr. 2614
bar@@ 2615
tz@@ 2616
culture 2617
Von 2618
ground 2619
ear@@ 2620
erungs@@ 2621
interests 2622
Min@@ 2623
serious 2624
ris@@ 2625
enter 2626
Name 2627
Apartment 2628
Research 2629
conference 2630
Audi 2631
act 2632
Kunst@@ 2633
deshalb 2634
az@@ 2635
Server 2636
ini 2637
sprechen 2638
clearly 2639
ying 2640
weiß 2641
befinden 2642
jedem 2643
ant@@ 2644
tet 2645
plant 2646
notwendig 2647
ban@@ 2648
Spanien 2649
bet@@ 2650
lung 2651
gr@@ 2652
burg 2653
Prozent 2654
ill@@ 2655
study 2656
Verantwortung 2657
ese 2658
ality 2659
deal 2660
throughout 2661
ving 2662
CA@@ 2663
verfahren 2664
tragen 2665
drive 2666
Bar 2667
Ben@@ 2668
genommen 2669
sor@@ 2670
dialogue 2671
Members 2672
mittel 2673
Foto 2674
65 2675
joint 2676
ks 2677
computer 2678
ße 2679
Strand 2680
Fortschritte 2681
objectives 2682
1996 2683
betrifft 2684
bau 2685
oll@@ 2686
aufgenommen 2687
stra@@ 2688
49 2689
cal 2690
oil 2691
operating 2692
values 2693
dar@@ 2694
Kor@@ 2695
Bewertung 2696
Erfolg 2697
Menschenrechte 2698
Punkt 2699
practice 2700
jede 2701
largest 2702
Data 2703
Turkey 2704
Kl@@ 2705
sur@@ 2706
aim 2707
Since 2708
1995 2709
Cal@@ 2710
Musik 2711
turn 2712
SA@@ 2713
Hei@@ 2714
Hamburg 2715
Board 2716
Forschungs@@ 2717
remain 2718
gentlemen 2719
Handel 2720
44 2721
kW 2722
US@@ 2723
perfect 2724
Umwelt 2725
Ser@@ 2726
zed 2727
ship 2728
werde 2729
population 2730
Monaten 2731
Por@@ 2732
Wert 2733
ness 2734
ulation 2735
Government 2736
zes 2737
Kunst 2738
fördern 2739
beginning 2740
euro 2741
IM@@ 2742
bleibt 2743
Bre@@ 2744
cher@@ 2745
hotels 2746
contains 2747
simple 2748
3,@@ 2749
dra@@ 2750
EU@@ 2751
Ober@@ 2752
sing 2753
Ne@@ 2754
keep 2755
lässt 2756
Ansicht 2757
benefit 2758
Daher 2759
inc@@ 2760
fragen 2761
digital 2762
lic@@ 2763
allerdings 2764
Raum 2765
enough 2766
Bra@@ 2767
id 2768
geführt 2769
Bevölkerung 2770
run 2771
bur@@ 2772
Ö@@ 2773
lose 2774
Russland 2775
coming 2776
pay 2777
lin 2778
Darüber 2779
actions 2780
.. 2781
jobs 2782
integrated 2783
systeme 2784
Vorschriften 2785
Steuer@@ 2786
UR@@ 2787
zer@@ 2788
Organisation 2789
Photoshop 2790
tation 2791
style 2792
gleichzeitig 2793
ganzen 2794
T-@@ 2795
Layer 2796
EIB 2797
format 2798
38 2799
Sozial@@ 2800
erg@@ 2801
ase 2802
North 2803
Affairs 2804
1x 2805
zweiten 2806
ieren 2807
jedes 2808
ines 2809
Italian 2810
external 2811
re-@@ 2812
gebracht 2813
booking 2814
concerns 2815
objective 2816
ve@@ 2817
Other 2818
stri@@ 2819
demand 2820
basic 2821
function 2822
commitment 2823
Br@@ 2824
wichtigen 2825
Station 2826
safe 2827
ators 2828
platz 2829
Cre@@ 2830
everything 2831
neben 2832
od@@ 2833
führung 2834
hoch@@ 2835
sales 2836
Spiel@@ 2837
ser 2838
lies 2839
Damit 2840
Vo@@ 2841
Institutionen 2842
Tre@@ 2843
Church 2844
amp@@ 2845
DOSCH 2846
fundamental 2847
try 2848
Te@@ 2849
effects 2850
weise 2851
Anfang 2852
38@@ 2853
Nord@@ 2854
came 2855
innen 2856
nimmt 2857
How 2858
sis 2859
verfügen 2860
wirtschaftliche 2861
Lebens@@ 2862
41 2863
decisions 2864
ß 2865
Dank 2866
trans@@ 2867
places 2868
efficient 2869
ani@@ 2870
37 2871
wenig 2872
Herzen 2873
source 2874
Mitarbeiter 2875
chi@@ 2876
funding 2877
comfortable 2878
professional 2879
behalf 2880
ero@@ 2881
Gro@@ 2882
Demokratie 2883
Vor 2884
tan@@ 2885
Erfahrung 2886
2020 2887
sound 2888
gar@@ 2889
Landes 2890
Radio 2891
inn@@ 2892
previous 2893
amendments 2894
stell@@ 2895
Standard 2896
gemäß 2897
ler@@ 2898
bit 2899
Kontrolle 2900
Krise 2901
face 2902
completely 2903
agreements 2904
kt 2905
Stunden 2906
ones 2907
fair 2908
fahren 2909
feel 2910
First 2911
reached 2912
erungen 2913
neuer 2914
Bildung 2915
Umgebung 2916
tiv@@ 2917
© 2918
Dateien 2919
village 2920
extremely 2921
send 2922
don 2923
mm@@ 2924
sierung 2925
Dec@@ 2926
Türkei 2927
tors 2928
hohe 2929
tics 2930
democracy 2931
reviews 2932
UN 2933
opportunities 2934
idea 2935
MB 2936
ssen 2937
uses 2938
werk 2939
sol@@ 2940
AD@@ 2941
ologie 2942
gleich 2943
promote 2944
ermöglichen 2945
Web@@ 2946
Pal@@ 2947
looking 2948
99 2949
ären 2950
democratic 2951
64 2952
can@@ 2953
mp@@ 2954
Brussels 2955
ganze 2956
Konferenz 2957
Einführung 2958
carried 2959
maßnahmen 2960
games 2961
Dra@@ 2962
majority 2963
Themen 2964
Einige 2965
installation 2966
Anforderungen 2967
below 2968
pf@@ 2969
Madam 2970
reduce 2971
bri@@ 2972
Fahr@@ 2973
angenommen 2974
bel 2975
internet 2976
forms 2977
enk@@ 2978
sion@@ 2979
col@@ 2980
SP@@ 2981
choice 2982
39 2983
Sprache 2984
favour 2985
Präsidentin 2986
deutschen 2987
politik 2988
Gott 2989
charge 2990
Größe 2991
ßen 2992
Wettbewerb 2993
pressure 2994
summer 2995
Schaffung 2996
ss 2997
white 2998
Chinese 2999
creation 3000
garden 3001
achieved 3002
gli@@ 3003
wobei 3004
exhibition 3005
Bet@@ 3006
shower 3007
Sub@@ 3008
king 3009
love 3010
Einzel@@ 3011
Insel 3012
ili@@ 3013
Regulation 3014
West@@ 3015
Groß@@ 3016
Services 3017
fil@@ 3018
glaube 3019
entwickeln 3020
fu@@ 3021
fol@@ 3022
apartments 3023
ort 3024
Natur 3025
heit 3026
actually 3027
ebenso 3028
eigene 3029
haus 3030
genden 3031
IL@@ 3032
Bestimmungen 3033
Ju@@ 3034
guarantee 3035
hohen 3036
ara 3037
Chi@@ 3038
rich 3039
verwenden 3040
server 3041
Hu@@ 3042
terrace 3043
lang 3044
250 3045
Christian 3046
sieht 3047
tieren 3048
sent 3049
we@@ 3050
geh@@ 3051
cs 3052
Produkt 3053
complex 3054
EL 3055
Film 3056
Fotos 3057
Zu 3058
John 3059
großer 3060
party 3061
Club 3062
j 3063
Pol@@ 3064
yp@@ 3065
11.@@ 3066
ismus 3067
Beschreibung 3068
leicht 3069
limited 3070
Rec@@ 3071
Ste@@ 3072
return 3073
fight 3074
similar 3075
Text 3076
Business 3077
2. 3078
Zahl 3079
supported 3080
job 3081
Ku@@ 3082
structure 3083
Mer@@ 3084
fe 3085
Frankfurt 3086
remains 3087
zweite 3088
Fre@@ 3089
durchgeführt 3090
Hotel@@ 3091
Wohn@@ 3092
6-@@ 3093
read 3094
Angebot 3095
ek 3096
VW 3097
suchen 3098
See 3099
kre@@ 3100
Aufgabe 3101
lau@@ 3102
box 3103
Gäste 3104
ff 3105
web 3106
gro@@ 3107
10.@@ 3108
consumers 3109
Bas@@ 3110
link 3111
ay@@ 3112
Iran 3113
Verbraucher 3114
weiter@@ 3115
Antwort 3116
größten 3117
Bekämpfung 3118
analysis 3119
consider 3120
46 3121
Kraft 3122
ON 3123
produced 3124
fra@@ 3125
ier@@ 3126
school 3127
Erklärung 3128
Erweiterung 3129
anderer 3130
Col@@ 3131
processes 3132
Änderungen 3133
understand 3134
considered 3135
UK 3136
US-@@ 3137
regarding 3138
search 3139
Switzerland 3140
Classic 3141
Gr@@ 3142
85 3143
movement 3144
teilen 3145
annual 3146
zehn 3147
contribution 3148
efficiency 3149
pa@@ 3150
Technologie 3151
om 3152
B. 3153
Ur@@ 3154
airport 3155
später 3156
Terrasse 3157
Nacht 3158
Schweiz 3159
Entwicklungs@@ 3160
stop 3161
gehören 3162
vielleicht 3163
0-@@ 3164
AG@@ 3165
clients 3166
Dialog 3167
Le 3168
components 3169
ena 3170
Tatsache 3171
uri@@ 3172
Op@@ 3173
.0@@ 3174
edi@@ 3175
zation 3176
gef@@ 3177
class 3178
gesetzt 3179
Innovation 3180
unseres 3181
West 3182
principles 3183
military 3184
Flug@@ 3185
52 3186
Greece 3187
ants 3188
soziale 3189
priority 3190
anzu@@ 3191
cli@@ 3192
Val@@ 3193
gabe 3194
Geld 3195
KB 3196
reasons 3197
Michael 3198
ladies 3199
ör@@ 3200
ei 3201
2017 3202
cu@@ 3203
gew@@ 3204
expected 3205
popular 3206
-0@@ 3207
challenges 3208
bestimmte 3209
head 3210
il 3211
friendly 3212
Anfrage 3213
tions@@ 3214
cul@@ 3215
AB@@ 3216
eben 3217
Lei@@ 3218
Book 3219
gan@@ 3220
though 3221
steps 3222
ast 3223
Convention 3224
bra@@ 3225
independent 3226
lines 3227
agricultural 3228
highly 3229
I-@@ 3230
six 3231
provisions 3232
frei 3233
increasing 3234
lagen 3235
setzt 3236
types 3237
folgende 3238
lower 3239
ble 3240
Hand 3241
ut 3242
gesamte 3243
Car 3244
Wahl 3245
47 3246
rest 3247
gre@@ 3248
Du 3249
kaufen 3250
por@@ 3251
Pri@@ 3252
Ausdruck 3253
ven 3254
bestimmten 3255
comments 3256
ach 3257
bekommen 3258
green 3259
Linux 3260
civil 3261
gefunden 3262
uni@@ 3263
whose 3264
Maria 3265
sense 3266
ft@@ 3267
emp@@ 3268
speed 3269
Dar@@ 3270
600 3271
Camping 3272
Prozess 3273
details 3274
ce@@ 3275
review 3276
größte 3277
started 3278
Heute 3279
reports 3280
parking 3281
äre 3282
mentioned 3283
Tagen 3284
setting 3285
innovation 3286
genießen 3287
shown 3288
Hersteller 3289
met 3290
Now 3291
response 3292
tiger 3293
Online-@@ 3294
port 3295
37@@ 3296
falls 3297
gleich@@ 3298
os@@ 3299
Produkt@@ 3300
providing 3301
Mehr 3302
Luft@@ 3303
alität 3304
weisen 3305
erk@@ 3306
rü@@ 3307
Met@@ 3308
suitable 3309
Cas@@ 3310
elements 3311
Jahrhundert 3312
benefits 3313
asked 3314
ws 3315
stark 3316
sho@@ 3317
Anti@@ 3318
einge@@ 3319
chs 3320
Energy 3321
heißt 3322
Ba@@ 3323
quickly 3324
recently 3325
nie 3326
Fra@@ 3327
commercial 3328
Microsoft 3329
Peter 3330
tem 3331
Conference 3332
raum 3333
Kingdom 3334
Economic 3335
öffentliche 3336
Gebäude 3337
ath@@ 3338
Ski@@ 3339
Ki@@ 3340
versch@@ 3341
lives 3342
mor@@ 3343
concept 3344
treffen 3345
Dabei 3346
rä@@ 3347
47@@ 3348
doing 3349
Can@@ 3350
Zeit@@ 3351
Berg@@ 3352
Golf 3353
enti@@ 3354
verbunden 3355
lä@@ 3356
Kal@@ 3357
win@@ 3358
flo@@ 3359
stellung 3360
hätte 3361
move 3362
employees 3363
News 3364
eingesetzt 3365
island 3366
Agreement 3367
stands 3368
Installation 3369
Kre@@ 3370
gewährleisten 3371
54 3372
Kultur@@ 3373
balance 3374
verkehr 3375
sites 3376
enable 3377
Brüssel 3378
Federal 3379
beitragen 3380
XXL 3381
pers 3382
Bro@@ 3383
written 3384
somit 3385
98 3386
pri@@ 3387
advantages 3388
Also 3389
activity 3390
Western 3391
maximum 3392
Office 3393
Gong 3394
documents 3395
Den 3396
allowed 3397
wider@@ 3398
Natur@@ 3399
child 3400
flat 3401
purpose 3402
rep@@ 3403
technologies 3404
Ha@@ 3405
procedures 3406
Rent 3407
self-@@ 3408
des@@ 3409
instruments 3410
mission 3411
Handels@@ 3412
sa 3413
guest 3414
1994 3415
distribution 3416
g-@@ 3417
hinsichtlich 3418
vergangenen 3419
455@@ 3420
Air 3421
IR@@ 3422
Tur@@ 3423
kam 3424
gives 3425
models 3426
EF@@ 3427
ends 3428
check 3429
IA 3430
wohl 3431
status 3432
Beschäftigung 3433
Bor@@ 3434
easily 3435
möglichkeiten 3436
Debatte 3437
Spanish 3438
Fest@@ 3439
Garten 3440
travel 3441
Gelegenheit 3442
Social 3443
cur@@ 3444
organisation 3445
daily 3446
tro@@ 3447
ändern 3448
erster 3449
selection 3450
tools 3451
ls 3452
bringt 3453
ics 3454
co-@@ 3455
4,@@ 3456
sorgen 3457
außerdem 3458
Pa@@ 3459
ole 3460
elt 3461
sting 3462
became 3463
black 3464
possibility 3465
Ter@@ 3466
processing 3467
Landwirtschaft 3468
ie@@ 3469
Wal@@ 3470
Basis 3471
aspects 3472
infrastructure 3473
stability 3474
High 3475
Bei@@ 3476
DVD 3477
on-@@ 3478
prevent 3479
opened 3480
IN 3481
Rechtsvorschriften 3482
uss@@ 3483
Not 3484
ya 3485
51 3486
Fund 3487
Tran@@ 3488
ften 3489
Tro@@ 3490
gungen 3491
rop@@ 3492
Nationen 3493
sechs 3494
Policy 3495
veröffentlicht 3496
direction 3497
sches 3498
accept 3499
del@@ 3500
erwartet 3501
Plan 3502
prä@@ 3503
fre@@ 3504
Forum 3505
hoffe 3506
guten 3507
ko 3508
ns 3509
rise 3510
na 3511
Position 3512
ihres 3513
bin@@ 3514
120 3515
fac@@ 3516
bs 3517
Grand 3518
Kat@@ 3519
behind 3520
Bur@@ 3521
darum 3522
nor@@ 3523
Österreich 3524
PDF 3525
asi@@ 3526
Wel@@ 3527
Behandlung 3528
Ra@@ 3529
sport 3530
ay 3531
Ausschuss 3532
IF@@ 3533
Schlafzimmer 3534
says 3535
pres@@ 3536
Mitteilung 3537
96 3538
During 3539
IG@@ 3540
Frühstück 3541
rit@@ 3542
neues 3543
cia 3544
sports 3545
Ca@@ 3546
Computer 3547
stoffe 3548
ba 3549
hen 3550
get@@ 3551
bestehen 3552
meinen 3553
generation 3554
Poland 3555
optim@@ 3556
konnten 3557
ass 3558
Amsterdam 3559
EI@@ 3560
metres 3561
eth@@ 3562
ür@@ 3563
era 3564
nothing 3565
Hor@@ 3566
Seit 3567
Funktion 3568
feld 3569
log@@ 3570
Vertreter 3571
letzte 3572
Swiss 3573
Lisbon 3574
word 3575
Herausforderungen 3576
Games 3577
AS 3578
AP@@ 3579
gar 3580
schaften 3581
56 3582
Bild@@ 3583
mountain 3584
einzu@@ 3585
Therefore 3586
Restaurants 3587
sal@@ 3588
le-@@ 3589
signed 3590
worldwide 3591
DA@@ 3592
ane 3593
alo@@ 3594
12.@@ 3595
Association 3596
siehe 3597
36@@ 3598
click 3599
tatsächlich 3600
bisher 3601
comm@@ 3602
Arbeiten 3603
British 3604
tik 3605
cre@@ 3606
volle 3607
consumer 3608
Sol@@ 3609
protect 3610
Sport@@ 3611
comprehensive 3612
Zeitpunkt 3613
Of 3614
concern 3615
oben 3616
EG 3617
gend 3618
Best@@ 3619
Preis@@ 3620
Herren 3621
aktuellen 3622
aufge@@ 3623
ki 3624
weg 3625
Regierungen 3626
death 3627
changed 3628
schließen 3629
option 3630
brought 3631
fields 3632
anderem 3633
highest 3634
reichen 3635
art@@ 3636
rechts 3637
Fällen 3638
Kan@@ 3639
ah 3640
ga 3641
Liebe 3642
dy 3643
mü@@ 3644
zwei@@ 3645
Sport 3646
201@@ 3647
tool 3648
wert 3649
governments 3650
Bundes@@ 3651
k-@@ 3652
options 3653
Pu@@ 3654
ID@@ 3655
stan@@ 3656
Gesundheits@@ 3657
Wort 3658
Motor@@ 3659
ey 3660
wine 3661
Gemeinschafts@@ 3662
erlaubt 3663
Mari@@ 3664
tungs@@ 3665
Uni@@ 3666
official 3667
Sonder@@ 3668
mark 3669
AL 3670
Griechenland 3671
zahlreiche 3672
Hel@@ 3673
wal@@ 3674
Suche 3675
800 3676
yn@@ 3677
Mel@@ 3678
wo@@ 3679
accordance 3680
wer 3681
Santa 3682
Kinder@@ 3683
collection 3684
base 3685
distance 3686
thanks 3687
CHF 3688
yer 3689
sectors 3690
cker 3691
ada 3692
labour 3693
Martin 3694
TR@@ 3695
Ka@@ 3696
certainly 3697
53 3698
mein 3699
scientific 3700
bad 3701
qui@@ 3702
ces 3703
einzige 3704
Energie@@ 3705
Trans@@ 3706
dan@@ 3707
Systeme 3708
Gel@@ 3709
mind 3710
financing 3711
choose 3712
sted 3713
Security 3714
Unterkunft 3715
ó@@ 3716
Medi@@ 3717
92 3718
Kampf 3719
ona 3720
transfer 3721
teil 3722
Klimaanlage 3723
Wein@@ 3724
danken 3725
Regeln 3726
Frei@@ 3727
son@@ 3728
aware 3729
genutzt 3730
Code 3731
bio@@ 3732
build 3733
treten 3734
Funktionen 3735
writing 3736
-- 3737
overall 3738
Russian 3739
approved 3740
zz@@ 3741
average 3742
Zusammen@@ 3743
fort@@ 3744
Anwendungen 3745
Hi@@ 3746
Vienna 3747
Linie 3748
fa@@ 3749
growing 3750
leisten 3751
Notwendigkeit 3752
markt 3753
Do 3754
wichtiger 3755
Deutsche 3756
functions 3757
Web 3758
Meter 3759
vel@@ 3760
ola 3761
Moment 3762
Win@@ 3763
numerous 3764
gelten 3765
sei@@ 3766
Firma 3767
Dusche 3768
cities 3769
Königreich 3770
ai 3771
Costa 3772
Andere 3773
Kom@@ 3774
ED@@ 3775
document 3776
aff@@ 3777
Energi@@ 3778
seems 3779
variety 3780
founded 3781
discussion 3782
Staats@@ 3783
payment 3784
contribute 3785
Familien 3786
follow 3787
MP@@ 3788
verstehen 3789
Mittel@@ 3790
Char@@ 3791
8-@@ 3792
Bemühungen 3793
cover 3794
tiv 3795
electronic 3796
prepared 3797
kosten 3798
Nuraghe 3799
ack 3800
ley 3801
Interessen 3802
ies 3803
draft 3804
zo@@ 3805
technischen 3806
e.g. 3807
long-term 3808
weeks 3809
Ban@@ 3810
M-@@ 3811
Last 3812
ml 3813
90@@ 3814
Photo 3815
Justice 3816
ars 3817
za 3818
images 3819
Plat@@ 3820
Ph@@ 3821
section 3822
reduction 3823
ungsp@@ 3824
supports 3825
tic@@ 3826
Ci@@ 3827
monitoring 3828
nice 3829
Ausstellung 3830
dri@@ 3831
Privat@@ 3832
BCO 3833
Paul 3834
lungen 3835
banks 3836
Netherlands 3837
Tu@@ 3838
star 3839
Reform 3840
max 3841
erfolgt 3842
richtig 3843
lack 3844
Fer@@ 3845
las@@ 3846
Wochen 3847
Produktions@@ 3848
submitted 3849
verantwortlich 3850
Bl@@ 3851
modernen 3852
ical 3853
device 3854
round 3855
Änderung 3856
3. 3857
organisations 3858
sionen 3859
restaurants 3860
tru@@ 3861
requires 3862
cra@@ 3863
Fehler 3864
eni@@ 3865
rule 3866
player 3867
Zi@@ 3868
Gre@@ 3869
De 3870
bal@@ 3871
ET 3872
Polen 3873
Abstimmung 3874
union 3875
fied 3876
Bereiche 3877
entsprechend 3878
Sea 3879
siert 3880
applied 3881
in-@@ 3882
vers@@ 3883
meinem 3884
offered 3885
blo@@ 3886
zone 3887
arbeitet 3888
ju@@ 3889
dung 3890
although 3891
ISO 3892
Dinge 3893
seines 3894
Gegen@@ 3895
opening 3896
denke 3897
release 3898
bevor 3899
paper 3900
Each 3901
alism 3902
Stadt@@ 3903
beds 3904
inf@@ 3905
plans 3906
geboren 3907
mal@@ 3908
Sti@@ 3909
1992 3910
pictures 3911
Mark@@ 3912
teile 3913
erklärt 3914
fahr@@ 3915
Durchführung 3916
verb@@ 3917
ella 3918
Debian 3919
ures 3920
freien 3921
nahm 3922
rau@@ 3923
genannten 3924
Finanzierung 3925
Video 3926
ren 3927
scheint 3928
Q 3929
implemented 3930
sale 3931
fallen 3932
separate 3933
nuclear 3934
1993 3935
J 3936
wählen 3937
Werk@@ 3938
Damen 3939
sektor 3940
Vol@@ 3941
97 3942
Präsidenten 3943
Is 3944
Czech 3945
criteria 3946
Max 3947
Rom@@ 3948
Ireland 3949
produce 3950
Zum 3951
imp@@ 3952
Organisationen 3953
ün@@ 3954
ement 3955
MO@@ 3956
Sommer 3957
multi@@ 3958
mean 3959
Monate 3960
alternative 3961
voted 3962
ational 3963
Let 3964
interesting 3965
mes 3966
Market 3967
The@@ 3968
Meine 3969
analy@@ 3970
Multi@@ 3971
Zeitraum 3972
Bri@@ 3973
'll 3974
hält 3975
schutz@@ 3976
Kindern 3977
pen@@ 3978
Badezimmer 3979
Aussprache 3980
everyone 3981
plants 3982
Del@@ 3983
legt 3984
condition 3985
erter 3986
wenige 3987
ably 3988
ga@@ 3989
länder 3990
Urlaub 3991
screen 3992
ol 3993
calls 3994
Dom@@ 3995
Gründen 3996
völlig 3997
fishing 3998
WTO 3999
bro@@ 4000
jo@@ 4001
mindestens 4002
ire 4003
According 4004
Super@@ 4005
ECU 4006
F-@@ 4007
char@@ 4008
friends 4009
zentrum 4010
representatives 4011
contract 4012
paar 4013
euch 4014
technische 4015
erfolgreich 4016
waste 4017
NO@@ 4018
eit@@ 4019
nahe 4020
.dll 4021
tin 4022
Party 4023
historical 4024
erneut 4025
Erfahrungen 4026
Medien 4027
vis@@ 4028
cause 4029
answer 4030
2018 4031
Verwaltungs@@ 4032
ved 4033
Hal@@ 4034
super@@ 4035
sh 4036
acc@@ 4037
1990 4038
Fran@@ 4039
eingerichtet 4040
phone 4041
ativen 4042
photo 4043
ehr@@ 4044
PC@@ 4045
Entscheidungen 4046
flu@@ 4047
gende 4048
72 4049
tisch 4050
Gruppen 4051
gerne 4052
Tor@@ 4053
57 4054
creating 4055
Foreign 4056
umfasst 4057
Folgen 4058
stadt 4059
58 4060
AC 4061
shi@@ 4062
vollständig 4063
Gewalt 4064
digen 4065
Macht 4066
anti-@@ 4067
Festival 4068
93 4069
Hol@@ 4070
weight 4071
Meinungen 4072
Link 4073
7-@@ 4074
Nicht 4075
ou 4076
zunächst 4077
Ressourcen 4078
India 4079
sagt 4080
businesses 4081
gene 4082
paid 4083
48@@ 4084
hold 4085
dadurch 4086
Freiheit 4087
Schul@@ 4088
lia 4089
nt 4090
de-@@ 4091
dor@@ 4092
Hin@@ 4093
Mediterranean 4094
LO@@ 4095
stelle 4096
Besuch 4097
zen@@ 4098
dr@@ 4099
agenda 4100
students 4101
beste 4102
Pl@@ 4103
versuchen 4104
pol@@ 4105
historischen 4106
committee 4107
prozess 4108
Gas@@ 4109
require 4110
methods 4111
O-@@ 4112
satz 4113
Mc@@ 4114
method 4115
bes@@ 4116
PS@@ 4117
Ap@@ 4118
Gal@@ 4119
rent 4120
stat@@ 4121
Rights 4122
immediately 4123
phase 4124
1000 4125
abzu@@ 4126
Straße 4127
news 4128
exp@@ 4129
TO@@ 4130
Druck@@ 4131
scope 4132
Grenzen 4133
AV@@ 4134
tour 4135
hoch 4136
Stand 4137
mark@@ 4138
Asia 4139
reality 4140
hor@@ 4141
Öffentlichkeit 4142
59 4143
add 4144
atmosphere 4145
ater 4146
Beginn 4147
Balkon 4148
Stelle 4149
Punkte 4150
Gl@@ 4151
Sen@@ 4152
liber@@ 4153
Pan@@ 4154
2x 4155
minimum 4156
improved 4157
ring 4158
Spieler 4159
My@@ 4160
Kern@@ 4161
tw@@ 4162
train 4163
Da@@ 4164
shop 4165
delivery 4166
instead 4167
beg@@ 4168
ological 4169
extra 4170
credit 4171
ssi@@ 4172
Auffassung 4173
win 4174
Institut 4175
geeignet 4176
abkommen 4177
strategic 4178
Sur@@ 4179
arb@@ 4180
ware 4181
besondere 4182
inger 4183
jeweiligen 4184
ash@@ 4185
At@@ 4186
elles 4187
Benutzer 4188
sieren 4189
wn 4190
fication 4191
entsprechenden 4192
Auto@@ 4193
Tel@@ 4194
91 4195
pat@@ 4196
Trade 4197
bessere 4198
kes 4199
Green 4200
Mess@@ 4201
implement 4202
erende 4203
Pro 4204
Cap@@ 4205
sha@@ 4206
Dem@@ 4207
beide 4208
essen 4209
ica 4210
vol@@ 4211
fla@@ 4212
entspricht 4213
forces 4214
matters 4215
selected 4216
Vereinbarung 4217
fte 4218
herunterladen 4219
wieder@@ 4220
starting 4221
fine 4222
5,@@ 4223
weder 4224
participation 4225
ack@@ 4226
cap@@ 4227
reduced 4228
anischen 4229
WC 4230
picture 4231
privaten 4232
sofort 4233
extension 4234
alisierung 4235
ba@@ 4236
anc@@ 4237
anda 4238
Kontakt 4239
vollen 4240
Mil@@ 4241
leave 4242
Tour 4243
ot 4244
IB@@ 4245
TI@@ 4246
emissions 4247
allgemeinen 4248
senden 4249
WLAN 4250
Jetzt 4251
IC 4252
steel 4253
zahlen 4254
OL@@ 4255
ect 4256
violence 4257
worked 4258
oren 4259
außerhalb 4260
Pat@@ 4261
practical 4262
Beg@@ 4263
obwohl 4264
Schritte 4265
Finally 4266
cle@@ 4267
arbeit 4268
Betrieb 4269
inen 4270
Technologien 4271
gegründet 4272
players 4273
zing 4274
denken 4275
advantage 4276
solchen 4277
Mac@@ 4278
work@@ 4279
Croatia 4280
devices 4281
beyond 4282
visitors 4283
Berichterstatter 4284
target 4285
les@@ 4286
assi@@ 4287
relationship 4288
Furthermore 4289
damage 4290
Nachrichten 4291
languages 4292
syn@@ 4293
Unser 4294
alte 4295
feature 4296
Wien 4297
ark@@ 4298
Ansatz 4299
historic 4300
stellte 4301
zudem 4302
Sinne 4303
Parteien 4304
San@@ 4305
medi@@ 4306
Mitte 4307
kom@@ 4308
· 4309
band 4310
DS@@ 4311
photos 4312
hu@@ 4313
Pra@@ 4314
uren 4315
fahrt 4316
ination 4317
sign 4318
sum@@ 4319
reference 4320
Kenntnis 4321
Description 4322
medical 4323
mag@@ 4324
Technology 4325
instrument 4326
mittel@@ 4327
rechte 4328
fic@@ 4329
Instrument 4330
van 4331
conflict 4332
flexible 4333
gang 4334
assessment 4335
effort 4336
tungen 4337
fr 4338
Aufenthalt 4339
regards 4340
covered 4341
planning 4342
connected 4343
schutz 4344
zusätzliche 4345
erenden 4346
Einrichtungen 4347
loss 4348
lie@@ 4349
Material 4350
Street 4351
kur@@ 4352
Mrd. 4353
Gottes 4354
chan@@ 4355
.de 4356
relation 4357
Zeichen 4358
church 4359
Mehrheit 4360
Klein@@ 4361
geworden 4362
uss 4363
zug 4364
Verpflichtungen 4365
erklärte 4366
verpflichtet 4367
experts 4368
stand@@ 4369
Dor@@ 4370
BR@@ 4371
mainly 4372
Selbst@@ 4373
Während 4374
z. 4375
456@@ 4376
swimming 4377
allein 4378
museum 4379
Health 4380
Agenda 4381
cable 4382
vertreten 4383
entry 4384
sex 4385
Island 4386
ame 4387
X-@@ 4388
darunter 4389
border 4390
wood 4391
lediglich 4392
bedingungen 4393
PR@@ 4394
aufzu@@ 4395
ideas 4396
star@@ 4397
uli@@ 4398
erkennen 4399
sten@@ 4400
lag 4401
eck@@ 4402
strengthen 4403
protected 4404
Werte 4405
ery 4406
amm@@ 4407
percent 4408
display 4409
rat@@ 4410
establish 4411
plat@@ 4412
Programms 4413
air@@ 4414
ll 4415
ett 4416
Ob@@ 4417
ong 4418
Arten 4419
Informations@@ 4420
Foundation 4421
Mak@@ 4422
geschaffen 4423
Fin@@ 4424
Res@@ 4425
statement 4426
task 4427
oh@@ 4428
Verwaltung 4429
automatisch 4430
initiatives 4431
Druck 4432
DR@@ 4433
europäischer 4434
ins@@ 4435
sec@@ 4436
beschlossen 4437
Beihilfen 4438
nationale 4439
meters 4440
sel 4441
70@@ 4442
folgen 4443
sters 4444
frei@@ 4445
moderne 4446
got 4447
Best 4448
developments 4449
SO@@ 4450
-R@@ 4451
66 4452
Dann 4453
Los 4454
accession 4455
Na@@ 4456
¼ 4457
length 4458
Konzept 4459
100@@ 4460
affected 4461
begrüßt 4462
coffee 4463
stu@@ 4464
Voll@@ 4465
4. 4466
Bed 4467
teil@@ 4468
bor@@ 4469
heutigen 4470
Mis@@ 4471
dining 4472
Holiday 4473
st-@@ 4474
erzielt 4475
Verkehrs@@ 4476
ment@@ 4477
reforms 4478
Director 4479
regulations 4480
interested 4481
CR@@ 4482
94 4483
priorities 4484
my@@ 4485
ready 4486
ch-@@ 4487
partnership 4488
Vergleich 4489
gesehen 4490
Public 4491
Spa 4492
Frieden 4493
families 4494
sicherheit 4495
Feldman 4496
aci@@ 4497
ir 4498
tag@@ 4499
Manager 4500
All@@ 4501
ungs- 4502
Format 4503
í@@ 4504
defined 4505
began 4506
Test@@ 4507
cho@@ 4508
EG@@ 4509
committed 4510
Nieder@@ 4511
nte 4512
enlargement 4513
alone 4514
secure 4515
ania 4516
fel@@ 4517
ely 4518
dia 4519
System@@ 4520
indeed 4521
competitive 4522
AU@@ 4523
Einrichtung 4524
storage 4525
equal 4526
speak 4527
ular 4528
pass 4529
Sil@@ 4530
Cam@@ 4531
goal 4532
oo@@ 4533
sische 4534
Pass@@ 4535
Aufmerksamkeit 4536
Milliarden 4537
elections 4538
conclusions 4539
quiet 4540
gungs@@ 4541
color 4542
Besch@@ 4543
learn 4544
Sam@@ 4545
Flash 4546
Wettbewerbsfähigkeit 4547
schließlich 4548
Then 4549
erwarten 4550
transparency 4551
mehreren 4552
operations 4553
richten 4554
print 4555
poli@@ 4556
Leistung 4557
leaders 4558
Star@@ 4559
Tagung 4560
networks 4561
goes 4562
tiges 4563
ität 4564
Concert 4565
LED 4566
challenge 4567
cally 4568
El 4569
compared 4570
poverty 4571
Ferienwohnung 4572
Friday 4573
Außen@@ 4574
Sixt 4575
bestehenden 4576
Kosovo 4577
erstellt 4578
mini@@ 4579
Transport 4580
ac 4581
avoid 4582
barkeit 4583
hinter 4584
E-Mail 4585
gebaut 4586
Gefahr 4587
rat 4588
ker@@ 4589
genannt 4590
äußerst 4591
Sel@@ 4592
Produkten 4593
Camp@@ 4594
legislative 4595
Licht 4596
placed 4597
shopping 4598
Ausschusses 4599
9-@@ 4600
tte 4601
000 4602
structural 4603
vehicles 4604
eher 4605
Aspekte 4606
Analyse 4607
Binnenmarkt 4608
core 4609
programs 4610
gruppe 4611
fish 4612
consumption 4613
back@@ 4614
Regel 4615
Ä@@ 4616
houses 4617
ester 4618
lernen 4619
fy 4620
combination 4621
consists 4622
Praxis 4623
stein 4624
ail@@ 4625
self-adhesive 4626
Bahnhof 4627
Player 4628
plan@@ 4629
Falls 4630
zw@@ 4631
telephone 4632
Künstler 4633
bedroom 4634
ide@@ 4635
ett@@ 4636
1991 4637
aims 4638
output 4639
giving 4640
Kommunikation 4641
fonds 4642
minute 4643
cking 4644
Modell 4645
Sar@@ 4646
Ist 4647
ate@@ 4648
amerikanischen 4649
Cat@@ 4650
kin@@ 4651
ture 4652
Opinions 4653
continued 4654
weather 4655
fs 4656
ish 4657
bilden 4658
pe 4659
chtung 4660
morning 4661
Pen@@ 4662
Fe@@ 4663
86 4664
Air@@ 4665
ee 4666
61 4667
went 4668
tis 4669
Farben 4670
nis 4671
kte 4672
6,@@ 4673
Geb@@ 4674
ched 4675
administrative 4676
äu@@ 4677
Mann 4678
Transparenz 4679
lige 4680
served 4681
opp@@ 4682
Cl@@ 4683
neu@@ 4684
dem@@ 4685
heiten 4686
Thomas 4687
presence 4688
improving 4689
dec@@ 4690
unk@@ 4691
Click 4692
ener 4693
nahme 4694
unknown 4695
sources 4696
19. 4697
halte 4698
automatically 4699
Ringe 4700
Farbe 4701
kostenlos 4702
Wahl@@ 4703
path 4704
tional 4705
chs@@ 4706
Schutz@@ 4707
lungs@@ 4708
62 4709
illegal 4710
late 4711
App@@ 4712
onen 4713
Dazu 4714
festgelegt 4715
prüfen 4716
recht@@ 4717
gelegt 4718
ierte 4719
Suite 4720
DC 4721
erfüllen 4722
tical 4723
Buch 4724
71 4725
nor 4726
Action 4727
lag@@ 4728
9,@@ 4729
ard@@ 4730
unterschiedlichen 4731
Wer@@ 4732
unver@@ 4733
Sweden 4734
Nations 4735
Lord 4736
lon@@ 4737
Mitgliedstaat 4738
pul@@ 4739
BO@@ 4740
ances 4741
Partnerschaft 4742
negative 4743
humanitarian 4744
reading 4745
Shop 4746
ingen 4747
Most 4748
Prüfung 4749
Atmosphäre 4750
lokalen 4751
Annahme 4752
warum 4753
Serie 4754
fen@@ 4755
intended 4756
yl@@ 4757
ine@@ 4758
update 4759
dre@@ 4760
zahlreichen 4761
Kolleginnen 4762
rel@@ 4763
science 4764
wall 4765
LE 4766
hören 4767
Osten 4768
behandelt 4769
announced 4770
benötigen 4771
huge 4772
Sardinia 4773
mb@@ 4774
kommenden 4775
cke 4776
IV 4777
Tr@@ 4778
Flu@@ 4779
verbessert 4780
63 4781
stoff@@ 4782
Award 4783
globalen 4784
regionalen 4785
e-mail 4786
crucial 4787
Angelegenheiten 4788
fordern 4789
detailed 4790
nachhaltige 4791
Control 4792
Stellungnahme 4793
flow 4794
ently 4795
Media 4796
Vereinten 4797
20. 4798
häufig 4799
Wi-Fi 4800
pleased 4801
rück@@ 4802
Herstellung 4803
cer@@ 4804
Page 4805
nisse 4806
welches 4807
Betriebs@@ 4808
administration 4809
Aufgaben 4810
Belgium 4811
Plan@@ 4812
gg@@ 4813
Madrid 4814
Ausbildung 4815
Durch@@ 4816
wing 4817
Entschließung 4818
Family 4819
happy 4820
tell 4821
justice 4822
verhindern 4823
offering 4824
Moreover 4825
platform 4826
tätig 4827
schreiben 4828
hon@@ 4829
influence 4830
sy@@ 4831
Pet@@ 4832
ca@@ 4833
Mini@@ 4834
Prof. 4835
sse 4836
Wor@@ 4837
Power 4838
werte 4839
consequences 4840
Besucher 4841
End@@ 4842
finally 4843
Rings 4844
balcony 4845
Kroatien 4846
GB 4847
chts@@ 4848
cars 4849
Kunden@@ 4850
associated 4851
L-@@ 4852
3D 4853
Folge 4854
buy 4855
aktiv 4856
Lan@@ 4857
ther 4858
tt 4859
Vergangenheit 4860
ner@@ 4861
berücksichtigt 4862
Wohnzimmer 4863
ata 4864
regime 4865
fordert 4866
tives 4867
War 4868
enst@@ 4869
Staat 4870
mut@@ 4871
istische 4872
ain@@ 4873
carry 4874
followed 4875
blue 4876
tete 4877
geöffnet 4878
zeiten 4879
Review 4880
leg@@ 4881
Sache 4882
Anstrengungen 4883
EB@@ 4884
closed 4885
68 4886
halt 4887
ständig 4888
nis@@ 4889
lost 4890
introduced 4891
67 4892
Lam@@ 4893
Em@@ 4894
Special 4895
temperature 4896
je@@ 4897
sation 4898
getan 4899
Eigenschaften 4900
ov@@ 4901
ausschließlich 4902
bezüglich 4903
Regelung 4904
installed 4905
wahrscheinlich 4906
Munich 4907
eli@@ 4908
Qualitäts@@ 4909
Company 4910
establishment 4911
aktuelle 4912
perhaps 4913
jeweils 4914
Standpunkt 4915
caused 4916
persönlichen 4917
bach 4918
schützen 4919
interface 4920
Diskussion 4921
hot 4922
Standards 4923
Mau@@ 4924
diejenigen 4925
Abgeordneten 4926
Black 4927
CS@@ 4928
Leute 4929
deb@@ 4930
wirtschaft 4931
kurz 4932
lit@@ 4933
Kids 4934
erfüllt 4935
Zwei@@ 4936
relating 4937
approx 4938
q@@ 4939
Mass@@ 4940
Vertrauen 4941
Afrika 4942
People 4943
B-@@ 4944
posi@@ 4945
Afghanistan 4946
studies 4947
wanted 4948
bestimmt 4949
gebiet 4950
Personal 4951
Krieg 4952
etten 4953
schönen 4954
5. 4955
ien 4956
artists 4957
bodies 4958
regular 4959
grün@@ 4960
MS 4961
Inn 4962
langen 4963
yst@@ 4964
reich@@ 4965
unit 4966
Freitag 4967
traffic 4968
spolitik 4969
stärker 4970
ensuring 4971
führte 4972
gekommen 4973
Industri@@ 4974
V-@@ 4975
Farb@@ 4976
Luxembourg 4977
stoff 4978
Pf@@ 4979
Adresse 4980
Prä@@ 4981
Körper 4982
clean 4983
ths 4984
gest@@ 4985
ot@@ 4986
eck 4987
Kriterien 4988
ice 4989
View 4990
Punkten 4991
Änderungsanträge 4992
angesichts 4993
competitiveness 4994
81 4995
richtige 4996
Ham@@ 4997
boo@@ 4998
inv@@ 4999
pan@@ 5000
Tim@@ 5001
Bir@@ 5002
Leistungs@@ 5003
Wettbewerbs@@ 5004
kennen 5005
buildings 5006
Klicken 5007
understanding 5008
83 5009
marketing 5010
x-@@ 5011
ue 5012
PO@@ 5013
tran@@ 5014
Unternehmens@@ 5015
76 5016
rural 5017
Reformen 5018
Familien@@ 5019
schul@@ 5020
normal 5021
umgesetzt 5022
White 5023
risks 5024
braucht 5025
Zur 5026
Telefon 5027
tä@@ 5028
Breakfast 5029
season 5030
vorgelegt 5031
Bes@@ 5032
ri 5033
shared 5034
geschlossen 5035
stock 5036
gezeigt 5037
88 5038
trägt 5039
700 5040
Middle 5041
machines 5042
spricht 5043
rin@@ 5044
usually 5045
BEST 5046
Inhalte 5047
Ren@@ 5048
auer 5049
achten 5050
Recht@@ 5051
Studie 5052
zeu@@ 5053
Aqu@@ 5054
gemein@@ 5055
ended 5056
lt 5057
shops 5058
plus 5059
Far@@ 5060
winter 5061
straße 5062
worth 5063
Abschluss 5064
gs@@ 5065
AN 5066
une 5067
69 5068
Denn 5069
stars 5070
measure 5071
gri@@ 5072
TH@@ 5073
München 5074
Doppel@@ 5075
animals 5076
gender 5077
hol@@ 5078
atory 5079
Christ 5080
ländern 5081
ari 5082
hum@@ 5083
ank@@ 5084
port@@ 5085
satellite 5086
Änderungsantrag 5087
ering 5088
Teile 5089
folgt 5090
extent 5091
cl@@ 5092
spo@@ 5093
Even 5094
abge@@ 5095
stor@@ 5096
DA 5097
inform@@ 5098
finance 5099
spar@@ 5100
Allgemein 5101
Shi@@ 5102
expressed 5103
gewesen 5104
89 5105
ckt 5106
Stabilität 5107
erhältlich 5108
Is@@ 5109
ously 5110
amendment 5111
un 5112
77 5113
surface 5114
S.@@ 5115
tal 5116
brand 5117
Wieder@@ 5118
Verkehr 5119
Menge 5120
appear 5121
stärken 5122
powerful 5123
frage 5124
Can 5125
Pool 5126
gave 5127
cat@@ 5128
participants 5129
Technik 5130
Sardinien 5131
ron 5132
won 5133
Bon@@ 5134
etz@@ 5135
wers 5136
7,@@ 5137
vorgesehen 5138
article 5139
Partei 5140
aimed 5141
Alter 5142
comfort 5143
testen 5144
SS@@ 5145
Bus 5146
Gri@@ 5147
Hy@@ 5148
solidarity 5149
aden 5150
income 5151
UL@@ 5152
Englisch 5153
Music 5154
Nur 5155
African 5156
purposes 5157
evening 5158
bald 5159
kar@@ 5160
atives 5161
gleiche 5162
express 5163
Thursday 5164
ending 5165
deutsche 5166
Ag@@ 5167
released 5168
Grenz@@ 5169
Ihres 5170
gener@@ 5171
net@@ 5172
useful 5173
hom@@ 5174
Dienste 5175
dient 5176
ke@@ 5177
Tier@@ 5178
daten 5179
führenden 5180
Eastern 5181
Studio 5182
istischen 5183
lic 5184
nahmen 5185
84 5186
Lake 5187
Enterprise 5188
Süd@@ 5189
alisation 5190
Treffen 5191
Kind 5192
physical 5193
record 5194
sicherzustellen 5195
Picture 5196
Einklang 5197
completed 5198
While 5199
Canada 5200
val@@ 5201
Geist 5202
trag@@ 5203
trotz 5204
eds 5205
aren 5206
so-called 5207
increasingly 5208
ild@@ 5209
Life 5210
Net@@ 5211
freie 5212
an-@@ 5213
email 5214
Sicht 5215
district 5216
82 5217
1989 5218
transparent 5219
Internet@@ 5220
SI@@ 5221
laden 5222
USB 5223
Stat@@ 5224
probably 5225
Number 5226
Gerichtshof 5227
heim 5228
genug 5229
Angaben 5230
ands 5231
hof 5232
adoption 5233
critical 5234
besuchen 5235
lösen 5236
Global 5237
likely 5238
Ministers 5239
linked 5240
ised 5241
bahn 5242
digt 5243
Anerkennung 5244
Idee 5245
borders 5246
Länge 5247
Kommissarin 5248
gem 5249
nächste 5250
discussed 5251
let@@ 5252
Initiativen 5253
court 5254
Arbeitnehmer 5255
Nu@@ 5256
vers 5257
vari@@ 5258
sets 5259
Katalog 5260
Stärkung 5261
element 5262
glass 5263
WESTERN 5264
Open 5265
Mikro@@ 5266
Opfer 5267
extensive 5268
Anteil 5269
Monday 5270
engine 5271
represents 5272
elegant 5273
Many 5274
87 5275
On@@ 5276
cri@@ 5277
supporting 5278
enterprises 5279
nachdem 5280
ush@@ 5281
thought 5282
positions 5283
talk 5284
items 5285
introduction 5286
ye 5287
cards 5288
schwer 5289
Its 5290
high-@@ 5291
Vielfalt 5292
dienen 5293
ome 5294
agriculture 5295
Entwicklungen 5296
mitteln 5297
sell 5298
tak@@ 5299
ency 5300
His 5301
Schweden 5302
demokratischen 5303
Indi@@ 5304
Wege 5305
Off@@ 5306
scale 5307
e.@@ 5308
ater@@ 5309
Ul@@ 5310
besonderen 5311
anlagen 5312
laws 5313
Kno@@ 5314
Gesch@@ 5315
concrete 5316
by@@ 5317
größere 5318
setzung 5319
discussions 5320
Leistungen 5321
tens 5322
menu 5323
erhöhen 5324
Indien 5325
kor@@ 5326
Belgien 5327
approximately 5328
MAR@@ 5329
10-@@ 5330
beginnen 5331
poor 5332
guidelines 5333
versucht 5334
police 5335
inside 5336
bers 5337
zei@@ 5338
Romania 5339
Vil@@ 5340
š@@ 5341
werke 5342
tiven 5343
-T@@ 5344
Lau@@ 5345
bli@@ 5346
Poli@@ 5347
institutional 5348
Irland 5349
played 5350
vision 5351
sicher@@ 5352
Verkauf 5353
hervor@@ 5354
Eu@@ 5355
Erde 5356
Kin@@ 5357
sign@@ 5358
bath 5359
Sec@@ 5360
Sim@@ 5361
richtigen 5362
launched 5363
accepted 5364
Allerdings 5365
Engagement 5366
laufen 5367
Großbritannien 5368
Financial 5369
\ 5370
cut 5371
ys@@ 5372
gas@@ 5373
closely 5374
Mand@@ 5375
leider 5376
acht 5377
fresh 5378
Show 5379
Tat 5380
structures 5381
Tagesansicht 5382
Only 5383
Gewicht 5384
street 5385
HD 5386
practices 5387
maintain 5388
Weitere 5389
schriftlich 5390
himself 5391
Stil 5392
lesen 5393
Titel 5394
hab@@ 5395
vorgeschlagen 5396
running 5397
Ü@@ 5398
voller 5399
serve 5400
Instrumente 5401
enzen 5402
top@@ 5403
geändert 5404
hy@@ 5405
encourage 5406
Syn@@ 5407
GDP 5408
Des@@ 5409
alismus 5410
Stre@@ 5411
artist 5412
gestimmt 5413
Arbeitsplätze 5414
Einigung 5415
track 5416
Sy@@ 5417
Reise@@ 5418
cal@@ 5419
Dorf 5420
Pres@@ 5421
draw 5422
günstigsten 5423
bericht 5424
Kraft@@ 5425
Gemeinde 5426
dat@@ 5427
ierung 5428
spirit 5429
offen@@ 5430
det@@ 5431
Sho@@ 5432
stable 5433
ME@@ 5434
terrorism 5435
meines 5436
unten 5437
Netz@@ 5438
Wunsch 5439
Human 5440
sun@@ 5441
Holz@@ 5442
ha 5443
74 5444
Falle 5445
imm@@ 5446
Hause 5447
Bis 5448
hour 5449
Sprachen 5450
purchase 5451
farmers 5452
una 5453
ita 5454
stehenden 5455
leistungs@@ 5456
beachten 5457
zentrale 5458
Schwierigkeiten 5459
anders 5460
ately 5461
spacious 5462
bes 5463
tradition 5464
warm 5465
15. 5466
don@@ 5467
G-@@ 5468
tliche 5469
Environment 5470
bike 5471
Greek 5472
inst@@ 5473
Bus@@ 5474
ziert 5475
debt 5476
Vertrags 5477
asse 5478
sky 5479
gelegen 5480
bedarf 5481
urs 5482
nu@@ 5483
Musik@@ 5484
Webseite 5485
chance 5486
esti@@ 5487
EX@@ 5488
electricity 5489
properties 5490
pra@@ 5491
Entfernung 5492
Jahrhunderts 5493
meetings 5494
granted 5495
TA 5496
endes 5497
Acc@@ 5498
benutzt 5499
presentation 5500
off@@ 5501
getroffen 5502
entsprechende 5503
Gam@@ 5504
stes 5505
Austrian 5506
wunder@@ 5507
Armut 5508
angezeigt 5509
Generation 5510
animal 5511
Wirkung 5512
sun 5513
Jan@@ 5514
limit 5515
8,@@ 5516
wasser@@ 5517
Kol@@ 5518
begin 5519
rein@@ 5520
Bürgern 5521
ierten 5522
Mont@@ 5523
klicken 5524
Great 5525
Tattoo 5526
Donnerstag 5527
SM@@ 5528
National@@ 5529
losen 5530
camera 5531
78 5532
fand 5533
Ziel@@ 5534
che@@ 5535
books 5536
alist 5537
wen@@ 5538
ty@@ 5539
angeboten 5540
sufficient 5541
73 5542
begann 5543
reg@@ 5544
Although 5545
geschrieben 5546
AM 5547
ged 5548
Lissabon 5549
schöne 5550
beginnt 5551
tig@@ 5552
chter 5553
übernehmen 5554
Film@@ 5555
fli@@ 5556
fying 5557
Kombination 5558
resort 5559
adopt 5560
tourism 5561
Cer@@ 5562
ING 5563
Rome 5564
Winter@@ 5565
ertes 5566
onn@@ 5567
England 5568
Stra@@ 5569
Empfehlungen 5570
Rechnung 5571
bil@@ 5572
minister 5573
Stand@@ 5574
Ir@@ 5575
religious 5576
Gold 5577
Kategorie 5578
chts 5579
Chorus 5580
Contact 5581
Jahres@@ 5582
TE 5583
wenden 5584
tz 5585
SE 5586
Unterkünfte 5587
bit@@ 5588
nam@@ 5589
Gerät 5590
Augen 5591
sometimes 5592
numbers 5593
degree 5594
implementing 5595
registered 5596
6. 5597
effectively 5598
Schi@@ 5599
MA 5600
LU@@ 5601
trust 5602
conclusion 5603
Unternehmens 5604
Fil@@ 5605
Mehr@@ 5606
discuss 5607
tlich 5608
expect 5609
dic@@ 5610
significantly 5611
starke 5612
As@@ 5613
Poly@@ 5614
combined 5615
Fischerei@@ 5616
assen 5617
AT 5618
hätten 5619
vorhanden 5620
Aufbau 5621
Mas@@ 5622
dungen 5623
Geh@@ 5624
decide 5625
R8 5626
wind 5627
stone 5628
correct 5629
Unter 5630
School 5631
Gebieten 5632
provision 5633
xi@@ 5634
stoffen 5635
Haus@@ 5636
respective 5637
host 5638
Reise 5639
heating 5640
Banken 5641
th-@@ 5642
.00 5643
availability 5644
è@@ 5645
director 5646
session 5647
spielt 5648
thi@@ 5649
managed 5650
graphy 5651
Links 5652
Main 5653
Beteiligung 5654
unemployment 5655
EV@@ 5656
skin 5657
demands 5658
coordination 5659
bestätigt 5660
pre-@@ 5661
unterkünfte 5662
Bürger@@ 5663
itt@@ 5664
confidence 5665
ourselves 5666
cy@@ 5667
Post@@ 5668
Schlüssel@@ 5669
fire 5670
et-@@ 5671
ory 5672
tar@@ 5673
Cro@@ 5674
clo@@ 5675
Airbrush 5676
vit@@ 5677
prior 5678
Lebens 5679
Pap@@ 5680
ingly 5681
Spezi@@ 5682
Malta 5683
Bau 5684
kten 5685
Kra@@ 5686
Formen 5687
7. 5688
bedrooms 5689
ming 5690
sions@@ 5691
becomes 5692
cent 5693
despite 5694
Hintergrund 5695
Alamo 5696
bas@@ 5697
Rad@@ 5698
w-@@ 5699
eff@@ 5700
eigentlich 5701
Volks@@ 5702
Umfang 5703
typical 5704
Schlussfolgerungen 5705
larger 5706
circumstances 5707
south 5708
KO@@ 5709
Star 5710
Wol@@ 5711
tourist 5712
überprüfen 5713
Mac 5714
stated 5715
billi@@ 5716
industrie 5717
eng 5718
planned 5719
staatliche 5720
technik 5721
offen 5722
entwicklung 5723
HO@@ 5724
erfahren 5725
199@@ 5726
Montag 5727
21. 5728
Sand@@ 5729
leader 5730
Sauna 5731
11. 5732
Plus 5733
domestic 5734
entscheiden 5735
compromise 5736
Volk 5737
Untersuchung 5738
whom 5739
Veranstaltungen 5740
promoting 5741
führ@@ 5742
Messe 5743
Pe@@ 5744
well-@@ 5745
radio 5746
zeichen 5747
fähigkeit 5748
olo@@ 5749
Fri@@ 5750
story 5751
sum 5752
nung 5753
zy@@ 5754
wants 5755
endlich 5756
entweder 5757
Teilnehmer 5758
lands 5759
Einfluss 5760
ken@@ 5761
Search 5762
gol@@ 5763
dro@@ 5764
Ja 5765
Zweck 5766
Überwachung 5767
Patienten 5768
Klima@@ 5769
Change 5770
Robert 5771
Prin@@ 5772
Wahlen 5773
karte 5774
nah@@ 5775
Navigation 5776
save 5777
Geräte 5778
mobili@@ 5779
weiterer 5780
finanziellen 5781
79 5782
Natürlich 5783
KG 5784
präsentiert 5785
ships 5786
raised 5787
tritt 5788
powers 5789
11@@ 5790
Erd@@ 5791
18. 5792
FR 5793
Monat 5794
dom@@ 5795
Beach 5796
stets 5797
tät 5798
S. 5799
Fort@@ 5800
preis 5801
gewährleistet 5802
Wissenschaft 5803
geschützt 5804
Fonds 5805
äl@@ 5806
heard 5807
consultation 5808
omm@@ 5809
Professor 5810
authority 5811
weist 5812
kulturellen 5813
currency 5814
ani 5815
ian 5816
Mur@@ 5817
figures 5818
Buch@@ 5819
quarter 5820
Vielzahl 5821
manner 5822
saw 5823
Gemeinsamen 5824
Internationalen 5825
Blue 5826
Pers 5827
französischen 5828
Ost@@ 5829
komplett 5830
Pil@@ 5831
difference 5832
Red 5833
Anspruch 5834
Korea 5835
learning 5836
tn@@ 5837
med 5838
ling@@ 5839
crime 5840
insurance 5841
trä@@ 5842
Berichts 5843
Zentral@@ 5844
Videos 5845
Komponenten 5846
Mah@@ 5847
DIN 5848
abgeschlossen 5849
updated 5850
Deutschen 5851
Vater 5852
vehicle 5853
trading 5854
Anlagen 5855
400@@ 5856
SE@@ 5857
Ant@@ 5858
ön@@ 5859
maintenance 5860
unbekannt 5861
Stencils 5862
Av@@ 5863
glich 5864
cohesion 5865
kaum 5866
Projekt@@ 5867
gem@@ 5868
Infrastruktur 5869
Video@@ 5870
dische 5871
applies 5872
überhaupt 5873
TS 5874
budgetary 5875
cro@@ 5876
regionale 5877
enables 5878
Komfort 5879
piece 5880
Comm@@ 5881
.exe 5882
aro@@ 5883
conditioning 5884
gruppen 5885
welt 5886
vital 5887
window 5888
victims 5889
schl@@ 5890
exclusive 5891
BI@@ 5892
führer 5893
architecture 5894
arten 5895
intensi@@ 5896
• 5897
seven 5898
concluded 5899
memory 5900
graphic 5901
outdoor 5902
aries 5903
exist 5904
Straßen@@ 5905
ams 5906
electric 5907
Bürgerinnen 5908
chtet 5909
ordnung 5910
Tätigkeit 5911
AK@@ 5912
mil@@ 5913
zeichnet 5914
continues 5915
sup@@ 5916
Tal@@ 5917
sam@@ 5918
Rooms 5919
VI@@ 5920
chter@@ 5921
Ausgaben 5922
Zustimmung 5923
broad 5924
Sektor 5925
Hungary 5926
markt@@ 5927
investments 5928
commitments 5929
Every 5930
Hinsicht 5931
reich 5932
club 5933
Wil@@ 5934
Herausforderung 5935
verk@@ 5936
hoher 5937
alter 5938
speziell 5939
geniessen 5940
werk@@ 5941
Anwesen 5942
räume 5943
advanced 5944
post@@ 5945
anten 5946
seh@@ 5947
ös@@ 5948
Sonne 5949
saying 5950
22@@ 5951
eingeführt 5952
recommendations 5953
Mr. 5954
anything 5955
Elemente 5956
AR 5957
Anschluss 5958
Gesetz 5959
Solidarität 5960
ura 5961
informed 5962
hergestellt 5963
eur 5964
benötigt 5965
colleagues 5966
urban 5967
Alles 5968
Gipfel 5969
Dan@@ 5970
Iraq 5971
database 5972
post 5973
täglich 5974
spec@@ 5975
,000 5976
species 5977
Latin 5978
iel@@ 5979
vorschriften 5980
wonderful 5981
Han@@ 5982
skills 5983
geo@@ 5984
Ster@@ 5985
erforderlichen 5986
reliable 5987
junge 5988
Ther@@ 5989
Männer 5990
square 5991
She 5992
Aufnahme 5993
sieben 5994
Ferienhaus 5995
eder@@ 5996
bewusst 5997
Über 5998
dedicated 5999
lichem 6000
indi@@ 6001
enth@@ 6002
Karten 6003
ersch@@ 6004
Resort 6005
el-@@ 6006
Nutzen 6007
stü@@ 6008
lig 6009
join 6010
sicht@@ 6011
export 6012
Prioritäten 6013
irgend@@ 6014
jungen 6015
ous@@ 6016
funktioniert 6017
Veränderungen 6018
behörden 6019
playing 6020
def@@ 6021
Mö@@ 6022
verkaufen 6023
Zoll@@ 6024
organised 6025
notwendigen 6026
glauben 6027
origin 6028
hel@@ 6029
vergessen 6030
Sunday 6031
überzeugt 6032
Report 6033
á 6034
2.0 6035
Phase 6036
möglichen 6037
button 6038
hil@@ 6039
abo@@ 6040
Digital 6041
DLL 6042
evaluation 6043
CD@@ 6044
Science 6045
17. 6046
z-@@ 6047
jährlich 6048
Fü@@ 6049
Märkte 6050
strengthening 6051
ligen 6052
Agency 6053
Wissen 6054
Saint 6055
öl@@ 6056
gewinnen 6057
Anbieter 6058
Ara@@ 6059
exc@@ 6060
beteiligt 6061
possibilities 6062
zumindest 6063
ences 6064
16. 6065
darstellt 6066
l-@@ 6067
boat 6068
Roma 6069
obligations 6070
module 6071
Sor@@ 6072
mögliche 6073
hair 6074
Kosten@@ 6075
Ges@@ 6076
Rou@@ 6077
Bil@@ 6078
Bank@@ 6079
Städte 6080
möglicherweise 6081
Kr@@ 6082
Another 6083
category 6084
Sonnen@@ 6085
val 6086
glichen 6087
cycle 6088
uner@@ 6089
ober@@ 6090
extended 6091
Winter 6092
referred 6093
cy 6094
install 6095
Society 6096
Botschaft 6097
client 6098
hängt 6099
vermeiden 6100
tal@@ 6101
Struktur 6102
standing 6103
Teil@@ 6104
Zeiten 6105
Cli@@ 6106
Licht@@ 6107
're 6108
ände 6109
Bewegung 6110
disease 6111
Tradition 6112
represent 6113
erhöht 6114
umfassende 6115
all-@@ 6116
Netzwerk 6117
sm 6118
Industrie@@ 6119
ral 6120
Ministry 6121
generally 6122
sierte 6123
lie 6124
R-@@ 6125
beträgt 6126
Str@@ 6127
serviert 6128
zimmer 6129
wesentlich 6130
produktion 6131
vier@@ 6132
Front 6133
improvement 6134
ute 6135
Anzeige 6136
Chance 6137
refer 6138
Fa@@ 6139
finanzielle 6140
Gast@@ 6141
acy 6142
tests 6143
Liber@@ 6144
Liefer@@ 6145
migration 6146
für@@ 6147
Fuß 6148
4x 6149
Investment 6150
stabili@@ 6151
rufen 6152
to-@@ 6153
ti 6154
Leitlinien 6155
gerecht 6156
person@@ 6157
participate 6158
aria 6159
spezi@@ 6160
ining 6161
Jeder 6162
Ol@@ 6163
Wahrheit 6164
recognition 6165
Lassen 6166
hren 6167
Schule 6168
Ferienwohnungen 6169
Essen 6170
Sc@@ 6171
Beschluss 6172
einfache 6173
recovery 6174
stro@@ 6175
10. 6176
select 6177
yourself 6178
Back@@ 6179
figure 6180
beaches 6181
Site 6182
ez 6183
background 6184
Eing@@ 6185
Fol@@ 6186
wür@@ 6187
Lehr@@ 6188
len@@ 6189
flexibility 6190
Leit@@ 6191
pleasant 6192
Tuesday 6193
gek@@ 6194
Both 6195
aufen 6196
Son@@ 6197
Prime 6198
described 6199
successfully 6200
Lebensmittel@@ 6201
Abend 6202
Mein 6203
unabhängig 6204
anderes 6205
dank 6206
dig@@ 6207
Werk 6208
compliance 6209
zung 6210
disc@@ 6211
Thanks 6212
middle 6213
Start 6214
Lab@@ 6215
marked 6216
manage 6217
druck 6218
amen 6219
Box 6220
Poker 6221
patients 6222
Status 6223
MI@@ 6224
Single 6225
punkt 6226
character 6227
Bulgaria 6228
8. 6229
ected 6230
Präsidentschaft 6231
reducing 6232
cop@@ 6233
object 6234
Wind@@ 6235
permanent 6236
Einhaltung 6237
groß 6238
dorf 6239
Royal 6240
wagen 6241
payments 6242
ening 6243
item 6244
beauty 6245
DO@@ 6246
Quali@@ 6247
A. 6248
breite 6249
stress 6250
medium 6251
tasks 6252
claims 6253
teilweise 6254
ato 6255
unterschiedliche 6256
arrival 6257
Edition 6258
fixed 6259
acts 6260
cuisine 6261
toren 6262
earlier 6263
übertragen 6264
attractive 6265
ante 6266
browser 6267
fiscal 6268
benutzen 6269
tigung 6270
Luxemburg 6271
Entwurf 6272
specifically 6273
Mädchen 6274
micro@@ 6275
Anlage 6276
erstellen 6277
allgemeine 6278
Rem@@ 6279
investigation 6280
Schw@@ 6281
told 6282
Eigen@@ 6283
Landschaft 6284
Port 6285
Gleichzeitig 6286
Mutter 6287
bert 6288
Viele 6289
Methode 6290
Ideen 6291
dig 6292
Basi@@ 6293
gehend 6294
Werke 6295
water@@ 6296
IT-@@ 6297
Elektro@@ 6298
Kapital@@ 6299
Stadtzentrum 6300
Bru@@ 6301
Veranstaltung 6302
komm@@ 6303
Stuttgart 6304
ching 6305
Arbeit@@ 6306
eröffnet 6307
Foto@@ 6308
reservation 6309
EW@@ 6310
fall@@ 6311
emen 6312
Game 6313
contain 6314
rechtlichen 6315
wahr@@ 6316
Hälfte 6317
kostenlose 6318
eins@@ 6319
nationaler 6320
Erachtens 6321
ful@@ 6322
Materialien 6323
lichkeiten 6324
Kategorien 6325
betroffenen 6326
sides 6327
Doppelzimmer 6328
rad 6329
Communication 6330
explo@@ 6331
Reg@@ 6332
volume 6333
dige 6334
namely 6335
tur 6336
Neben 6337
sicht 6338
corporate 6339
haltung 6340
Maße 6341
Berichte 6342
Delegation 6343
Friedens@@ 6344
heits@@ 6345
ferner 6346
sou@@ 6347
bauen 6348
112@@ 6349
manufacturing 6350
Sau@@ 6351
SCH@@ 6352
Provinz 6353
180 6354
unden 6355
schafts@@ 6356
ül@@ 6357
Freunde 6358
engineering 6359
verfolgen 6360
enger 6361
asing 6362
Hafen 6363
Handel@@ 6364
Rumänien 6365
produk@@ 6366
ham@@ 6367
Option 6368
zogen 6369
kal@@ 6370
proper 6371
Master 6372
stic 6373
sta 6374
3x 6375
Regi@@ 6376
actual 6377
ancient 6378
drei@@ 6379
Dat@@ 6380
Android 6381
biggest 6382
furnished 6383
one-@@ 6384
us-@@ 6385
Europ@@ 6386
immediate 6387
orders 6388
esen 6389
staatlichen 6390
experienced 6391
Wa@@ 6392
erhält 6393
Just 6394
exactly 6395
ala 6396
fälle 6397
organization 6398
Eis@@ 6399
Angebote 6400
Fern@@ 6401
Absatz 6402
voice 6403
internationaler 6404
dringend 6405
Richtlinien 6406
coast 6407
MS@@ 6408
ake 6409
trac@@ 6410
chung 6411
factors 6412
tures 6413
gesellschaft 6414
wollte 6415
route 6416
row 6417
trip 6418
Mes@@ 6419
ban 6420
außer 6421
Because 6422
dienst@@ 6423
graph@@ 6424
fuel 6425
advance 6426
Ungarn 6427
facing 6428
Power@@ 6429
erzielen 6430
store 6431
ection 6432
fällt 6433
Tar@@ 6434
freuen 6435
Children 6436
dates 6437
Mich@@ 6438
Cur@@ 6439
12. 6440
KMU 6441
adi@@ 6442
vergleichen 6443
Dokument 6444
mobility 6445
9. 6446
Following 6447
ills 6448
letter 6449
Express 6450
30. 6451
jederzeit 6452
Kanada 6453
Education 6454
berücksichtigen 6455
13. 6456
tube 6457
Old 6458
CE 6459
ros 6460
objects 6461
Strom@@ 6462
evidence 6463
20-@@ 6464
Lesen 6465
umwelt@@ 6466
Rat@@ 6467
sli@@ 6468
Obwohl 6469
entschieden 6470
versions 6471
wär@@ 6472
ahead 6473
Stein@@ 6474
Saturday 6475
freiheit 6476
Zudem 6477
ping 6478
Nachdem 6479
profitieren 6480
changing 6481
ward 6482
Vision 6483
Sohn 6484
Mod@@ 6485
becoming 6486
flü@@ 6487
follows 6488
Card 6489
Chrome 6490
spiel 6491
25. 6492
Roman 6493
starken 6494
lowest 6495
peaceful 6496
buffet 6497
300@@ 6498
verfolgt 6499
otherwise 6500
Gesam@@ 6501
Eltern 6502
ord 6503
web@@ 6504
wesentlichen 6505
es-@@ 6506
easier 6507
dienste 6508
Vorbereitung 6509
Zustand 6510
drawn 6511
zt 6512
CEO 6513
entstehen 6514
Experten 6515
SMEs 6516
Bay 6517
oni 6518
VAT 6519
ental 6520
master 6521
atoren 6522
Hum@@ 6523
Sha@@ 6524
ath 6525
Verb@@ 6526
ghts 6527
Beitritt 6528
Herz@@ 6529
Sach@@ 6530
öffnen 6531
texts 6532
considerable 6533
enh@@ 6534
Palace 6535
nights 6536
Meeres@@ 6537
Förder@@ 6538
Note 6539
ele 6540
ye@@ 6541
signal 6542
ska 6543
Brenn@@ 6544
minim@@ 6545
Turkish 6546
entsprechen 6547
dienst 6548
Optionen 6549
ght 6550
aging 6551
initial 6552
dritten 6553
welcher 6554
Waren 6555
großes 6556
colour 6557
faith 6558
translation 6559
Area 6560
mode 6561
miteinander 6562
Innen 6563
monitor 6564
Micro@@ 6565
cel@@ 6566
läuft 6567
Pic@@ 6568
Lim@@ 6569
PL@@ 6570
nation 6571
trying 6572
etc. 6573
Technical 6574
Sitzung 6575
Hall 6576
leistung 6577
Tod 6578
accessible 6579
Kli@@ 6580
Hil@@ 6581
pr@@ 6582
blood 6583
scheme 6584
gelangen 6585
names 6586
viol@@ 6587
units 6588
Architektur 6589
steigen 6590
350 6591
bul@@ 6592
Typ 6593
160 6594
schen@@ 6595
Dienstag 6596
Preisen 6597
We@@ 6598
walking 6599
mountains 6600
legung 6601
north 6602
manufacturers 6603
sprache 6604
Contains 6605
substantial 6606
hands 6607
chemical 6608
truth 6609
targets 6610
establishing 6611
ora 6612
represented 6613
AF@@ 6614
Hans 6615
testing 6616
Nutzer 6617
Kop@@ 6618
tour@@ 6619
Terrorismus 6620
leads 6621
pen 6622
sia 6623
Bedürfnisse 6624
dliche 6625
father 6626
wir@@ 6627
promotion 6628
campaign 6629
anal 6630
f-@@ 6631
Tit@@ 6632
Stimme 6633
voting 6634
appears 6635
licht 6636
strategie 6637
konkrete 6638
abl@@ 6639
controlled 6640
Beschäftigungs@@ 6641
detail 6642
contemporary 6643
handeln 6644
14. 6645
verlassen 6646
motion 6647
eindeutig 6648
governance 6649
compatible 6650
motor 6651
NATO 6652
fun 6653
Maschinen 6654
pal@@ 6655
Kühlschrank 6656
slo@@ 6657
oc@@ 6658
regi@@ 6659
CO2 6660
mä@@ 6661
shed 6662
lebt 6663
Geld@@ 6664
discrimination 6665
Casino 6666
Sehenswürdigkeiten 6667
confirmed 6668
Innen@@ 6669
Voraussetzungen 6670
articles 6671
erinnern 6672
cells 6673
eit 6674
einander 6675
Gleich@@ 6676
betreffenden 6677
operators 6678
Bewertungen 6679
Jan 6680
ined 6681
ries 6682
č@@ 6683
grössten 6684
Risiken 6685
Out@@ 6686
Wer 6687
mehr@@ 6688
Vorhaben 6689
forced 6690
Vit@@ 6691
spezifischen 6692
menschlichen 6693
AD 6694
ared 6695
conc@@ 6696
Real 6697
cket 6698
erfolgen 6699
mod@@ 6700
unbe@@ 6701
berühmten 6702
getting 6703
usw. 6704
resi@@ 6705
kids 6706
1st 6707
serves 6708
anlage 6709
Mus@@ 6710
exercise 6711
Angesichts 6712
visible 6713
doubt 6714
Sitz 6715
ards 6716
wenigen 6717
Shipping 6718
ziele 6719
courses 6720
Dienst 6721
stattfinden 6722
wald 6723
producers 6724
optimal 6725
erleben 6726
greifen 6727
ßt 6728
economies 6729
Sun@@ 6730
jüngsten 6731
nation@@ 6732
died 6733
cked 6734
Neue 6735
zuvor 6736
sat@@ 6737
ambi@@ 6738
eigen@@ 6739
fisheries 6740
Mieten 6741
Gebiete 6742
Place 6743
wand@@ 6744
title 6745
existence 6746
covers 6747
C. 6748
determined 6749
dynamic 6750
collaboration 6751
fal@@ 6752
XP 6753
Band 6754
gold 6755
BIP 6756
Pas@@ 6757
Blo@@ 6758
Dek@@ 6759
mittels 6760
Marina 6761
à 6762
instance 6763
differences 6764
Strategy 6765
Garden 6766
Med@@ 6767
alt@@ 6768
erklären 6769
Summit 6770
fund 6771
ited 6772
eigenes 6773
goals 6774
Es@@ 6775
gens 6776
komp@@ 6777
fort 6778
ton@@ 6779
lern 6780
ello 6781
rechten 6782
li 6783
failure 6784
Nov@@ 6785
Paper 6786
aut@@ 6787
Dutch 6788
leit@@ 6789
reicht 6790
absolutely 6791
zuletzt 6792
Dimension 6793
Culture 6794
break 6795
beinhaltet 6796
foot 6797
Co 6798
launch 6799
Ausgabe 6800
Koordinierung 6801
ela 6802
Verfassung 6803
kop@@ 6804
IK@@ 6805
ements 6806
lake 6807
ergreifen 6808
Gehminuten 6809
registration 6810
ops 6811
begrüße 6812
preparation 6813
St 6814
wn@@ 6815
ail 6816
i.e. 6817
ku@@ 6818
BNITM 6819
genehmigt 6820
King 6821
gefördert 6822
multi-@@ 6823
Fac@@ 6824
abroad 6825
Stück 6826
110 6827
Private 6828
Via 6829
schools 6830
Gol@@ 6831
guter 6832
aktive 6833
spiel@@ 6834
Jedes 6835
delivered 6836
Tages@@ 6837
konzentrieren 6838
Denmark 6839
Mem@@ 6840
ländlichen 6841
difficulties 6842
Verhältnis 6843
regulatory 6844
entitled 6845
Rel@@ 6846
informieren 6847
villa 6848
fern 6849
Such 6850
pieces 6851
installiert 6852
Methoden 6853
Agrar@@ 6854
PRO@@ 6855
renewable 6856
stimmen 6857
Dam@@ 6858
heat 6859
Verfügbarkeit 6860
Framework 6861
guide 6862
firm 6863
landscape 6864
dge 6865
lö@@ 6866
Sou@@ 6867
valid 6868
Men@@ 6869
Zahlen 6870
controls 6871
Gest@@ 6872
LA 6873
diverse 6874
BMW 6875
tigte 6876
Wednesday 6877
spent 6878
Aufgrund 6879
PL 6880
Cra@@ 6881
awarded 6882
arrangements 6883
möglichst 6884
passed 6885
morgen 6886
Fix 6887
Strom 6888
ond 6889
derzeitigen 6890
river 6891
Artikelnummer 6892
spezifische 6893
race 6894
gliche 6895
Dollar 6896
register 6897
wirken 6898
m-@@ 6899
Ausland 6900
140 6901
grounds 6902
Vis@@ 6903
formal 6904
Room 6905
gesetz@@ 6906
mention 6907
deep 6908
gers 6909
Hom@@ 6910
erin 6911
categories 6912
communities 6913
inform 6914
association 6915
territory 6916
Cou@@ 6917
homes 6918
politischer 6919
aut 6920
info 6921
ecken 6922
Wirtschafts- 6923
cru@@ 6924
soft 6925
kers 6926
president 6927
Mitteln 6928
author 6929
betrachtet 6930
bereiche 6931
spend 6932
kraft 6933
ented 6934
definition 6935
Verbraucher@@ 6936
welcomes 6937
Forsch@@ 6938
danke 6939
oms 6940
Ker@@ 6941
bild@@ 6942
comply 6943
ano@@ 6944
elli@@ 6945
speaking 6946
wasser 6947
origin@@ 6948
Indeed 6949
Produk@@ 6950
Before 6951
Antworten 6952
oven 6953
Je@@ 6954
agencies 6955
schwer@@ 6956
speech 6957
Worte 6958
fruit 6959
Inseln 6960
ffen 6961
perspective 6962
Gei@@ 6963
Haup@@ 6964
chain 6965
strength 6966
sofern 6967
poly@@ 6968
sold 6969
parents 6970
ax@@ 6971
wider 6972
31. 6973
alised 6974
Food 6975
ked 6976
hän@@ 6977
EX 6978
Up@@ 6979
Hauptstadt 6980
bt 6981
erscheint 6982
Anpassung 6983
oral 6984
Musi@@ 6985
deckt 6986
cross-border 6987
Sonntag 6988
ans@@ 6989
Rom 6990
zul@@ 6991
alization 6992
Nicht@@ 6993
disp@@ 6994
outstanding 6995
ically 6996
Network 6997
politics 6998
Fähigkeit 6999
Brazil 7000
Joint 7001
Immobilien 7002
cas@@ 7003
Beim 7004
reali@@ 7005
Cheap 7006
schön 7007
forschung 7008
operational 7009
Cu@@ 7010
invited 7011
Investitions@@ 7012
Van 7013
Once 7014
Stellen 7015
edge 7016
Haushalt 7017
ätze 7018
Prot@@ 7019
Support 7020
loc@@ 7021
Niveau 7022
down@@ 7023
Kam@@ 7024
Rahmen@@ 7025
Anna 7026
suite 7027
jene 7028
dimension 7029
mass 7030
Ferner 7031
Aussicht 7032
chn@@ 7033
spring 7034
width 7035
Ke@@ 7036
unbedingt 7037
filter 7038
but@@ 7039
ession 7040
GR@@ 7041
PH@@ 7042
Schn@@ 7043
advertising 7044
Size 7045
Andreas 7046
Günstige 7047
Mol@@ 7048
County 7049
watch 7050
Antrag 7051
recommended 7052
closer 7053
yc@@ 7054
Park@@ 7055
ky 7056
Menschen@@ 7057
Under 7058
130 7059
staaten 7060
wären 7061
ink 7062
Irak 7063
Law 7064
hall 7065
Motor 7066
Year 7067
laid 7068
Nutz@@ 7069
haus@@ 7070
Angelegenheit 7071
fan@@ 7072
Press 7073
ausdrücklich 7074
owned 7075
raise 7076
genen 7077
Klasse 7078
earth 7079
eo 7080
River 7081
Agentur 7082
forest 7083
Hoffnung 7084
precisely 7085
rup@@ 7086
unde 7087
Budapest 7088
individuals 7089
mag 7090
Ari@@ 7091
golf 7092
ick 7093
gran@@ 7094
wrong 7095
Samstag 7096
Located 7097
driver 7098
television 7099
sage 7100
Sun 7101
technological 7102
lig@@ 7103
int@@ 7104
visited 7105
contents 7106
gkeiten 7107
railway 7108
wichtigste 7109
Vorsitz 7110
bezeichnet 7111
Pakistan 7112
serv@@ 7113
125 7114
duty 7115
ace 7116
priv@@ 7117
Las 7118
election 7119
spezielle 7120
qualität 7121
Bin@@ 7122
Zimmern 7123
door 7124
Johannes 7125
Homepage 7126
.net 7127
Ev@@ 7128
Teilen 7129
Überprüfung 7130
Zahlungs@@ 7131
haf@@ 7132
demo@@ 7133
Kooperation 7134
else 7135
Auftrag 7136
bildung 7137
gal@@ 7138
summit 7139
manufacturer 7140
Flexibilität 7141
en- 7142
Austausch 7143
Ram@@ 7144
Kenn@@ 7145
hauptsächlich 7146
italienischen 7147
begrüßen 7148
listed 7149
derung 7150
Bedarf 7151
gewal@@ 7152
mäßig 7153
Open@@ 7154
intensive 7155
traditionellen 7156
Dur@@ 7157
friend 7158
stored 7159
nearly 7160
chinesischen 7161
male 7162
Mobile 7163
eti@@ 7164
opposition 7165
deliver 7166
Square 7167
thinking 7168
guarantees 7169
Effizienz 7170
BS@@ 7171
Autovermietung 7172
natürlichen 7173
Gründung 7174
produkte 7175
Öl@@ 7176
ligh@@ 7177
stellten 7178
surrounding 7179
warten 7180
Charter 7181
zufolge 7182
criminal 7183
Aussch@@ 7184
erfordert 7185
Rock 7186
Vorteil 7187
Finland 7188
Teilnahme 7189
darstellen 7190
surrounded 7191
CL@@ 7192
meaning 7193
Betten 7194
tho@@ 7195
farm 7196
bedeut@@ 7197
primarily 7198
Regional 7199
ush 7200
Boo@@ 7201
Führung 7202
eins 7203
regelmäßig 7204
stations 7205
Series 7206
belieb@@ 7207
tag 7208
absolute 7209
einrichtungen 7210
sicherlich 7211
esses 7212
kenn@@ 7213
mutual 7214
proceedings 7215
fill 7216
isch@@ 7217
physi@@ 7218
ungsin@@ 7219
fit 7220
gesprochen 7221
ning 7222
Ann@@ 7223
Up 7224
mechanism 7225
Kri@@ 7226
reception 7227
Holy 7228
Bul@@ 7229
größeren 7230
expression 7231
approval 7232
quote 7233
Verpflichtung 7234
lieb@@ 7235
zentralen 7236
Stunde 7237
Laufe 7238
balanced 7239
haft 7240
gering@@ 7241
tigkeit 7242
IV@@ 7243
zusätzlich 7244
Lieferzeit 7245
Adobe 7246
Alexander 7247
Mexico 7248
forum 7249
multiple 7250
ehemaligen 7251
soci@@ 7252
SU@@ 7253
stal@@ 7254
atic 7255
ander@@ 7256
trau@@ 7257
patent 7258
Tom@@ 7259
adv@@ 7260
ells 7261
USD 7262
erst@@ 7263
Map 7264
spor@@ 7265
lik@@ 7266
owner 7267
Thus 7268
Lag@@ 7269
Kab@@ 7270
utili@@ 7271
Dokumente 7272
Beh@@ 7273
Ab 7274
Kap@@ 7275
primary 7276
Gästebewertungen 7277
Internationale 7278
File 7279
Kredit@@ 7280
Veröffentlichung 7281
schwierig 7282
our@@ 7283
basiert 7284
Sit@@ 7285
anz@@ 7286
tten 7287
ge-@@ 7288
einzigen 7289
Bulgarien 7290
arch@@ 7291
Yes 7292
Schließlich 7293
Schwerpunkt 7294
sprach 7295
Deutsch 7296
Ed@@ 7297
operate 7298
‑ 7299
applicable 7300
900 7301
omp@@ 7302
diversity 7303
sensitive 7304
Niederlande 7305
spa 7306
MTM 7307
Risiko 7308
schei@@ 7309
nden 7310
brings 7311
Time 7312
Australia 7313
fuer 7314
kat@@ 7315
respond 7316
requested 7317
elte 7318
sole 7319
Bestandteil 7320
anz 7321
klare 7322
überall 7323
Revolution 7324
advice 7325
Lauf@@ 7326
Why 7327
gain 7328
ideale 7329
Breite 7330
lauf@@ 7331
500@@ 7332
Wander@@ 7333
counter@@ 7334
Der@@ 7335
sem@@ 7336
eiten 7337
Plaza 7338
Übereinkommen 7339
presents 7340
zuständigen 7341
garantiert 7342
Standard@@ 7343
load 7344
Cent@@ 7345
Polish 7346
claim 7347
Kann 7348
bars 7349
ami@@ 7350
ón 7351
Europeans 7352
profile 7353
threat 7354
Protection 7355
nachhaltigen 7356
Mensch 7357
diseases 7358
PM 7359
Belarus 7360
Berliner 7361
dlich 7362
Pau@@ 7363
issued 7364
Tak@@ 7365
metal 7366
wissenschaftlichen 7367
gespeichert 7368
duc@@ 7369
Reaktion 7370
ers@@ 7371
wettbewerbs@@ 7372
outcome 7373
stieg 7374
ik 7375
Raum@@ 7376
erwähnt 7377
Fire 7378
bitten 7379
Altstadt 7380
ple@@ 7381
experiences 7382
Paket 7383
wan@@ 7384
parallel 7385
55@@ 7386
Cri@@ 7387
weiteres 7388
seem 7389
heit@@ 7390
dlichen 7391
substances 7392
bol@@ 7393
A4 7394
CO 7395
cent@@ 7396
monetary 7397
expenditure 7398
videos 7399
George 7400
ites 7401
write 7402
Strategien 7403
Irish 7404
Mittwoch 7405
Achtung 7406
Training 7407
organ@@ 7408
erheblich 7409
gehalten 7410
packages 7411
Zweitens 7412
Bildungs@@ 7413
fore@@ 7414
fähig 7415
wa 7416
tomorrow 7417
combat 7418
produziert 7419
ony 7420
fläche 7421
einiger 7422
smaller 7423
A.@@ 7424
Tab@@ 7425
maschinen 7426
resistance 7427
Mitgliedern 7428
Casa 7429
ising 7430
Mindest@@ 7431
wäh@@ 7432
entered 7433
AP 7434
looks 7435
DV@@ 7436
gestalten 7437
Bed@@ 7438
Priorität 7439
besseren 7440
viel@@ 7441
getragen 7442
height 7443
candidate 7444
besitzt 7445
ier 7446
organisiert 7447
Japanese 7448
CA 7449
HD@@ 7450
Wechsel@@ 7451
Parkplatz 7452
Meg@@ 7453
aqu@@ 7454
tem@@ 7455
mother 7456
Vari@@ 7457
examples 7458
umfassenden 7459
454@@ 7460
fris@@ 7461
membership 7462
Pin@@ 7463
ometer 7464
tex@@ 7465
modified 7466
verstärkt 7467
preise 7468
Datum 7469
Hinweis 7470
identified 7471
län@@ 7472
block 7473
Programmen 7474
nearby 7475
consideration 7476
entirely 7477
discover 7478
tern@@ 7479
Price 7480
Modelle 7481
Tex@@ 7482
ney 7483
seek 7484
Mission 7485
Zei@@ 7486
sitting 7487
bekannten 7488
reisen 7489
id@@ 7490
relativ 7491
kol@@ 7492
d. 7493
eight 7494
interpre@@ 7495
facilitate 7496
industries 7497
Leiter 7498
gsten 7499
kleiner 7500
lle 7501
allowing 7502
tene 7503
stellungen 7504
ehen 7505
weltweiten 7506
groß@@ 7507
wil@@ 7508
zählen 7509
Theater 7510
Versch@@ 7511
Det@@ 7512
tage 7513
Deb@@ 7514
Berücksichtigung 7515
Netz 7516
lex 7517
Sitz@@ 7518
Rede 7519
spre@@ 7520
or-@@ 7521
Aktionen 7522
kamen 7523
Rau@@ 7524
head@@ 7525
destination 7526
übrigen 7527
locations 7528
Test 7529
ports 7530
Projekten 7531
Pak@@ 7532
flight 7533
kul@@ 7534
dangerous 7535
OP@@ 7536
freue 7537
carbon 7538
fies 7539
solcher 7540
467@@ 7541
happen 7542
chosen 7543
theit 7544
formed 7545
Executive 7546
tere 7547
provider 7548
Identi@@ 7549
Verständnis 7550
fizierung 7551
noted 7552
Zugriff 7553
kli@@ 7554
fri@@ 7555
Dre@@ 7556
furniture 7557
spending 7558
Marke 7559
sn@@ 7560
Haltung 7561
Christ@@ 7562
Brand@@ 7563
globale 7564
wit@@ 7565
tested 7566
sible 7567
dischen 7568
congratulate 7569
führende 7570
wishes 7571
mental 7572
q 7573
characteristics 7574
115@@ 7575
named 7576
gets 7577
Buy 7578
mo 7579
beziehen 7580
Barroso 7581
festgestellt 7582
prepare 7583
solar 7584
strongly 7585
itäts@@ 7586
Partnern 7587
ausschuss 7588
Tiere 7589
sper@@ 7590
automatic 7591
notice 7592
resulting 7593
Don@@ 7594
strategies 7595
nicht@@ 7596
Verk@@ 7597
helps 7598
fei@@ 7599
barer 7600
Drei@@ 7601
omet@@ 7602
MT@@ 7603
ambitious 7604
felt 7605
thers 7606
Cop@@ 7607
factor 7608
mar 7609
bereitgestellt 7610
expertise 7611
isation 7612
healthy 7613
prevention 7614
Gründe 7615
Mietwagenfirmen 7616
reifen 7617
boot 7618
continuing 7619
generated 7620
woman 7621
No. 7622
Kontroll@@ 7623
CH 7624
ong@@ 7625
empfehlen 7626
Morgen 7627
equ@@ 7628
Einheit 7629
ME 7630
Fein@@ 7631
relax 7632
Secretary 7633
Tourismus 7634
pas@@ 7635
Amerika 7636
Sprach@@ 7637
bildet 7638
leb@@ 7639
danach 7640
ni 7641
Schl@@ 7642
schwarz 7643
Use 7644
Vertrags@@ 7645
vollständige 7646
positiv 7647
wesen 7648
fung 7649
greatest 7650
39@@ 7651
festival 7652
fäl@@ 7653
formats 7654
rapid 7655
mail 7656
Grenze 7657
ständigen 7658
Bettwäsche 7659
beschäftigt 7660
vertrau@@ 7661
properly 7662
Sammlung 7663
Beitritts@@ 7664
binding 7665
rou@@ 7666
QU@@ 7667
12-@@ 7668
set@@ 7669
Dänemark 7670
Hauses 7671
Menschenrechts@@ 7672
hear 7673
charged 7674
betont 7675
Regelungen 7676
classic 7677
manager 7678
Mul@@ 7679
identi@@ 7680
Guests 7681
taste 7682
Safety 7683
fee 7684
shares 7685
u. 7686
journey 7687
machte 7688
rie@@ 7689
maschine 7690
sauna 7691
channels 7692
User 7693
verloren 7694
award 7695
acquisition 7696
leu@@ 7697
zählt 7698
systemen 7699
richtlinie 7700
hilft 7701
wünschen 7702
zugänglich 7703
seite 7704
Palestinian 7705
marks 7706
introduce 7707
schn@@ 7708
Pop@@ 7709
eria 7710
Rein@@ 7711
Ide@@ 7712
tischer 7713
weg@@ 7714
remember 7715
Vereinigte 7716
Brasilien 7717
spread 7718
nit@@ 7719
Mad@@ 7720
hen@@ 7721
anne 7722
Kapitel 7723
Boden 7724
Nun 7725
lab@@ 7726
Ori@@ 7727
Beiträge 7728
moving 7729
ress 7730
older 7731
ppe 7732
profit 7733
Dri@@ 7734
fron@@ 7735
Erstens 7736
Hilfs@@ 7737
akzeptieren 7738
elec@@ 7739
consistent 7740
aj@@ 7741
BER@@ 7742
ks@@ 7743
entrance 7744
Allgemeine 7745
sofa 7746
persönliche 7747
cell 7748
truly 7749
decades 7750
Trucks 7751
institution 7752
programms 7753
Roh@@ 7754
talking 7755
CF@@ 7756
Image 7757
plays 7758
agency 7759
ativ 7760
M. 7761
transition 7762
Fel@@ 7763
künftigen 7764
BA 7765
red@@ 7766
Project 7767
Protokoll 7768
EM 7769
Bay@@ 7770
zugleich 7771
elected 7772
shape 7773
GM@@ 7774
castle 7775
onia 7776
statements 7777
Post 7778
Freude 7779
talks 7780
obtain 7781
Cy@@ 7782
addressed 7783
defence 7784
entlang 7785
YpagesEurope.com 7786
ado 7787
höchste 7788
ric 7789
höher 7790
dealing 7791
länger 7792
limits 7793
contained 7794
anische 7795
entdecken 7796
co-operation 7797
ruhigen 7798
legi@@ 7799
gewählt 7800
representative 7801
refugees 7802
occasion 7803
stern 7804
Beratung 7805
britischen 7806
heraus@@ 7807
Nachfrage 7808
unless 7809
Les@@ 7810
reli@@ 7811
Sinn 7812
bett 7813
pension 7814
Alt@@ 7815
akt 7816
sämtliche 7817
arian 7818
qualified 7819
Küste 7820
Schu@@ 7821
mass@@ 7822
appeal 7823
Photo@@ 7824
1.5 7825
arti@@ 7826
ktion 7827
Update 7828
organized 7829
aches 7830
Ereignisse 7831
yr@@ 7832
versorgung 7833
Abkommens 7834
requests 7835
Over 7836
1988 7837
gezogen 7838
Sat@@ 7839
ual 7840
conducted 7841
ama 7842
dert 7843
remove 7844
ka@@ 7845
modern@@ 7846
Warum 7847
Hab@@ 7848
te-@@ 7849
increases 7850
u.a. 7851
um-@@ 7852
Übernahme 7853
CON@@ 7854
Cyprus 7855
printing 7856
Gegensatz 7857
eding 7858
Gericht 7859
and-@@ 7860
si 7861
Fal@@ 7862
anzeigen 7863
geprüft 7864
gerät 7865
erweitert 7866
Gui@@ 7867
Gran@@ 7868
Hz 7869
west 7870
driving 7871
Agriculture 7872
ool 7873
kept 7874
Inst@@ 7875
Amarillas@@ 7876
fear 7877
aspect 7878
remaining 7879
esch@@ 7880
tenen 7881
mt 7882
rasch 7883
Autom@@ 7884
proof 7885
Porto 7886
üh@@ 7887
touch 7888
Mittelpunkt 7889
num@@ 7890
Texte 7891
refers 7892
dagegen 7893
delegation 7894
Kauf@@ 7895
behörde 7896
sil@@ 7897
karten 7898
Klimawandel 7899
Glas@@ 7900
arms 7901
Meldung 7902
failed 7903
previously 7904
appointed 7905
22. 7906
tsch@@ 7907
Tagesordnung 7908
Academy 7909
Daniel 7910
Kilometer 7911
impossible 7912
audi@@ 7913
gutes 7914
Verarbeitung 7915
brau@@ 7916
schneller 7917
holidays 7918
grad 7919
yo@@ 7920
parks 7921
edition 7922
Fisch@@ 7923
Verbindungen 7924
arium 7925
h. 7926
els@@ 7927
selbstverständlich 7928
Lang@@ 7929
75@@ 7930
zufrieden 7931
App 7932
CP@@ 7933
Gas 7934
willkommen 7935
attack 7936
speziellen 7937
catalogue 7938
dir 7939
schule 7940
san@@ 7941
ced 7942
teilnehmen 7943
Unfortunately 7944
Worten 7945
FR@@ 7946
Their 7947
gia 7948
sens@@ 7949
pdf 7950
Berufs@@ 7951
rail 7952
erhielt 7953
ischem 7954
cour@@ 7955
haften 7956
informiert 7957
overview 7958
default 7959
einsetzen 7960
Den@@ 7961
Süden 7962
Datenbank 7963
Bosch 7964
regularly 7965
ungser@@ 7966
erer 7967
Medien@@ 7968
eignet 7969
kn@@ 7970
bung 7971
iten 7972
Nachricht 7973
carefully 7974
tei@@ 7975
woh@@ 7976
coun@@ 7977
performed 7978
Kaffee 7979
Ret@@ 7980
immigration 7981
Dublin 7982
Seine 7983
ager 7984
Line 7985
Alb@@ 7986
Fenster 7987
ball 7988
zusätzlichen 7989
vorgeschlagenen 7990
mus 7991
Ass@@ 7992
initi@@ 7993
investors 7994
verkauft 7995
§ 7996
Partner@@ 7997
lische 7998
identity 7999
Staat@@ 8000
wards 8001
schlägt 8002
sch-@@ 8003
channel 8004
aircraft 8005
hoffen 8006
24. 8007
gallery 8008
EA 8009
welcomed 8010
achieving 8011
Dennoch 8012
Sem@@ 8013
gegangen 8014
ises 8015
Pla@@ 8016
Lat@@ 8017
Benutz@@ 8018
Facebook 8019
Gold@@ 8020
PE 8021
tively 8022
tos 8023
Automati@@ 8024
König 8025
geschichte 8026
hinter@@ 8027
rechts@@ 8028
Wein 8029
höhere 8030
Solar@@ 8031
liefern 8032
ag 8033
Campingplatz 8034
identify 8035
rising 8036
LAN 8037
ader 8038
gio 8039
trees 8040
westlichen 8041
thereby 8042
offenen 8043
historische 8044
Steuern 8045
Any 8046
dritte 8047
plätze 8048
've 8049
Vers@@ 8050
Fortschritt 8051
wirtschaft@@ 8052
bo 8053
publication 8054
harmoni@@ 8055
geln 8056
copy 8057
weak@@ 8058
Aktualisierung 8059
treated 8060
organizations 8061
Department 8062
halb 8063
ep 8064
Read 8065
Organ@@ 8066
gegenwärtigen 8067
chti@@ 8068
wirkt 8069
Begriff 8070
Washington 8071
mechanisms 8072
Lö@@ 8073
Sozi@@ 8074
nten 8075
situations 8076
28. 8077
Zweifel 8078
etes 8079
bilateral 8080
23. 8081
Road 8082
grenz@@ 8083
Kunde 8084
ex 8085
Salzburg 8086
fällen 8087
spaces 8088
schw@@ 8089
Sü@@ 8090
6x 8091
independence 8092
Browser 8093
stei@@ 8094
Dienstleistungs@@ 8095
reported 8096
Wider@@ 8097
Jugend@@ 8098
Heizung 8099
Fru@@ 8100
leadership 8101
kulturelle 8102
southern 8103
Erhöhung 8104
Währung 8105
elten 8106
ond@@ 8107
desire 8108
asp@@ 8109
regeln 8110
Allgemeinen 8111
abhängig 8112
ongoing 8113
sätze 8114
Immobilien@@ 8115
attempt 8116
inklusive 8117
Egypt 8118
sian 8119
photo@@ 8120
contracts 8121
Beispiele 8122
low-@@ 8123
causes 8124
ran 8125
Grundsätze 8126
Ausstattung 8127
BE@@ 8128
Norden 8129
Gem@@ 8130
tierung 8131
conduct 8132
ausreichend 8133
runs 8134
GU@@ 8135
moved 8136
Secondly 8137
ill 8138
ergeben 8139
Amendment 8140
aw@@ 8141
Safe 8142
satzes 8143
Leider 8144
Bedenken 8145
bridge 8146
command 8147
Cooperation 8148
intervention 8149
geri@@ 8150
Ferien@@ 8151
expansion 8152
tours 8153
High@@ 8154
Direct 8155
liefert 8156
DESIGN 8157
liability 8158
extreme 8159
SW@@ 8160
aktiven 8161
sichern 8162
recommend 8163
Eli@@ 8164
weapons 8165
sorgt 8166
echte 8167
Arbeitslosigkeit 8168
far@@ 8169
K-@@ 8170
Dadurch 8171
Feld 8172
tenden 8173
ov 8174
erleichtern 8175
gegen@@ 8176
Meeting 8177
read@@ 8178
liebe 8179
relatively 8180
Gor@@ 8181
Forderungen 8182
creative 8183
valley 8184
lischen 8185
a. 8186
Tei@@ 8187
unity 8188
tly 8189
waiting 8190
Gästen 8191
beri@@ 8192
Sorge 8193
gewährt 8194
east 8195
luxury 8196
bringing 8197
kürzlich 8198
ille 8199
run@@ 8200
Globalisierung 8201
bemerk@@ 8202
Bab@@ 8203
Flü@@ 8204
mei@@ 8205
anbieten 8206
68@@ 8207
Zy@@ 8208
functioning 8209
Vice-President 8210
reasonable 8211
installieren 8212
469@@ 8213
dishes 8214
selbstklebend 8215
extend 8216
presidency 8217
thro@@ 8218
zieh@@ 8219
Quelle 8220
library 8221
Arts 8222
depending 8223
amounts 8224
Atom@@ 8225
Speicher@@ 8226
tier@@ 8227
Apple 8228
contributions 8229
hö@@ 8230
Unterschiede 8231
Mobilität 8232
Cookies 8233
umgeben 8234
connections 8235
Rund@@ 8236
iti@@ 8237
portfolio 8238
gkeits@@ 8239
geleistet 8240
Normen 8241
fir@@ 8242
fs@@ 8243
two-@@ 8244
aufgefordert 8245
Euro-@@ 8246
ze@@ 8247
Empfehlung 8248
aged 8249
low@@ 8250
Energien 8251
Michel 8252
fühlen 8253
Aspekt 8254
theme 8255
Firmen 8256
Flo@@ 8257
finanziert 8258
GT@@ 8259
schwei@@ 8260
Verringerung 8261
pot 8262
Ausschuß 8263
tief@@ 8264
a.@@ 8265
lebens@@ 8266
Sin@@ 8267
kel 8268
holding 8269
Plattform 8270
gefordert 8271
mem@@ 8272
Reservierung 8273
ups 8274
betroffen 8275
ativ@@ 8276
seien 8277
MAN@@ 8278
eyes 8279
sobald 8280
vorzu@@ 8281
Frank 8282
begonnen 8283
ew 8284
dly 8285
DI 8286
Women 8287
History 8288
entlich 8289
Trop@@ 8290
ero 8291
HT@@ 8292
eta 8293
PA 8294
atz 8295
fru@@ 8296
modules 8297
handling 8298
Prinzip 8299
fur@@ 8300
flights 8301
pos@@ 8302
Luft 8303
Ausnahme 8304
merk@@ 8305
tierten 8306
humanitäre 8307
ope 8308
cold 8309
hilfe 8310
pm 8311
genuine 8312
absolut 8313
attacks 8314
ize 8315
Prof@@ 8316
Amt 8317
Maßnahme 8318
euros 8319
24-@@ 8320
zuständig 8321
Joseph 8322
Spring 8323
Interview 8324
centres 8325
Enjoy 8326
Gestaltung 8327
Jewish 8328
grant 8329
ville 8330
Kamera 8331
Westen 8332
verabschiedet 8333
dich 8334
films 8335
frame 8336
ologische 8337
configuration 8338
Trau@@ 8339
Bereitstellung 8340
intern@@ 8341
gaben 8342
calling 8343
propose 8344
massage 8345
Politik@@ 8346
Bü@@ 8347
Diesen 8348
Grundsatz 8349
dep@@ 8350
settings 8351
neither 8352
verändert 8353
regul@@ 8354
Realität 8355
einzelne 8356
ain 8357
cleaning 8358
Kommunikations@@ 8359
gelöst 8360
Rö@@ 8361
sischen 8362
Galerie 8363
ago@@ 8364
gate 8365
Cab@@ 8366
neuesten 8367
Ah@@ 8368
enheit 8369
restructuring 8370
Gefühl 8371
Photos 8372
Speci@@ 8373
Regierungs@@ 8374
werten 8375
positiven 8376
ok 8377
1,5 8378
Stellung 8379
Yet 8380
asylum 8381
welt@@ 8382
11-@@ 8383
Puzzle 8384
happened 8385
offices 8386
ont 8387
bewegen 8388
Common 8389
Buchung 8390
sprachen 8391
äm@@ 8392
therapy 8393
tra 8394
Diam@@ 8395
26. 8396
Bewer@@ 8397
mö@@ 8398
aller@@ 8399
drawing 8400
Booking.com 8401
Institution 8402
linken 8403
formen 8404
JavaScript 8405
Top@@ 8406
Design@@ 8407
Sat-TV 8408
alized 8409
Datei@@ 8410
New@@ 8411
manchmal 8412
eder 8413
Düsseldorf 8414
Wann 8415
seriously 8416
Marketing 8417
Dauer 8418
fellow 8419
Jede 8420
spann@@ 8421
unn@@ 8422
Tan@@ 8423
A3 8424
han@@ 8425
Swedish 8426
ny 8427
Stock 8428
persönlich 8429
contrary 8430
enswert 8431
obligation 8432
log 8433
spra@@ 8434
Ms 8435
cr@@ 8436
adequate 8437
geschehen 8438
bear 8439
foundation 8440
Reform@@ 8441
turned 8442
organic 8443
CC@@ 8444
Dru@@ 8445
bs@@ 8446
Kommissions@@ 8447
Tätigkeiten 8448
prin@@ 8449
9x 8450
ator@@ 8451
websites 8452
erstmals 8453
ständi@@ 8454
Cr@@ 8455
Charakter 8456
dennoch 8457
audio 8458
guaranteed 8459
divided 8460
fran@@ 8461
rt 8462
expensive 8463
Datenschutz@@ 8464
Spar@@ 8465
Fischerei 8466
riding 8467
Kontakt@@ 8468
Performance 8469
werken 8470
Album 8471
Kapazität 8472
cc@@ 8473
attractions 8474
Panel 8475
kontrolle 8476
Strukturen 8477
massive 8478
waters 8479
General@@ 8480
behalten 8481
soweit 8482
Two 8483
Not@@ 8484
determine 8485
Christus 8486
Asien 8487
materi@@ 8488
mas 8489
sidenten 8490
arische 8491
Cho@@ 8492
Ai@@ 8493
listen 8494
relaxing 8495
zurückzu@@ 8496
lla 8497
Problemen 8498
Kundenkommentare 8499
Finnland 8500
Coll@@ 8501
fes@@ 8502
höchsten 8503
Aktion 8504
se-@@ 8505
myself 8506
Mallorca 8507
Ty@@ 8508
Decision 8509
27. 8510
bom@@ 8511
Famili@@ 8512
Town 8513
Verhalten 8514
uring 8515
exclusively 8516
vern@@ 8517
unterzeichnet 8518
definiert 8519
Verkehr@@ 8520
Fälle 8521
assist 8522
Berichterstatterin 8523
Fr@@ 8524
EP 8525
fas@@ 8526
deficit 8527
struktur@@ 8528
lien 8529
Ton@@ 8530
DS 8531
Water 8532
transmission 8533
residence 8534
Studien 8535
schrift 8536
ausschusses 8537
career 8538
GE 8539
tin@@ 8540
universal 8541
ungefähr 8542
youth 8543
spiele 8544
convinced 8545
Tour@@ 8546
ils 8547
Sommer@@ 8548
schließt 8549
gän@@ 8550
Migration 8551
d.h. 8552
Rh@@ 8553
op 8554
jährigen 8555
Zwischen@@ 8556
Il@@ 8557
arm@@ 8558
Prague 8559
W-@@ 8560
birth 8561
Definition 8562
customs 8563
utes 8564
Roll@@ 8565
meist 8566
Beziehung 8567
entwickelten 8568
error 8569
diskutieren 8570
Guide 8571
getreten 8572
Wohnungen 8573
Heiligen 8574
zunehmend 8575
Komp@@ 8576
mul@@ 8577
cell@@ 8578
früher 8579
teilt 8580
starts 8581
CC 8582
bern 8583
hafte 8584
FI@@ 8585
trifft 8586
'm 8587
Unabhängigkeit 8588
topic 8589
emergency 8590
except 8591
laufenden 8592
tea 8593
packaging 8594
lokale 8595
bild 8596
kehr@@ 8597
Compare 8598
ema 8599
tried 8600
dam@@ 8601
ort@@ 8602
Schweizer 8603
Resolution 8604
Prize 8605
fördert 8606
input 8607
Act 8608
notes 8609
Pay@@ 8610
gegenwärtig 8611
durchaus 8612
hp 8613
Versionen 8614
FO@@ 8615
alu@@ 8616
damals 8617
Index 8618
lösung 8619
Sports 8620
ref@@ 8621
Kas@@ 8622
Bol@@ 8623
weiten 8624
Gau@@ 8625
popul@@ 8626
Jerusalem 8627
Dreh@@ 8628
Analy@@ 8629
album 8630
Spirit 8631
focused 8632
improvements 8633
är 8634
Ausbau 8635
voraus@@ 8636
perfectly 8637
gebiete 8638
Ferienhäuser 8639
Justiz 8640
meter 8641
Planung 8642
James 8643
schnelle 8644
Forderung 8645
kanischen 8646
Mietwagen 8647
ables 8648
Sign@@ 8649
sierten 8650
Ruhe 8651
besucht 8652
Master@@ 8653
holen 8654
ministers 8655
Thailand 8656
wodurch 8657
ories 8658
ige 8659
vent@@ 8660
DM@@ 8661
oration 8662
lich@@ 8663
Seg@@ 8664
accounts 8665
29. 8666
Australien 8667
Rap@@ 8668
Wo@@ 8669
Point 8670
parliamentary 8671
constantly 8672
uting 8673
urgent 8674
impressive 8675
freundliche 8676
formation 8677
Castle 8678
Second 8679
Leitung 8680
ehrt 8681
Arab 8682
contrast 8683
Quality 8684
berger 8685
Einstellungen 8686
transaction 8687
disposal 8688
üt@@ 8689
Mark 8690
vorliegenden 8691
assets 8692
motor@@ 8693
handel 8694
zugunsten 8695
linie 8696
Tau@@ 8697
Gegend 8698
cont@@ 8699
bezieht 8700
dated 8701
inner 8702
Denk@@ 8703
zus@@ 8704
affect 8705
gend@@ 8706
finished 8707
psych@@ 8708
Head 8709
demokratische 8710
projekte 8711
Ji@@ 8712
stry 8713
firms 8714
wis@@ 8715
Fla@@ 8716
reagieren 8717
13.@@ 8718
Eingang 8719
anyone 8720
daraus 8721
vo 8722
7x 8723
lte 8724
5x 8725
Live 8726
dru@@ 8727
ologi@@ 8728
Spi@@ 8729
Good 8730
Schwer@@ 8731
deli@@ 8732
squ@@ 8733
with@@ 8734
Due 8735
pu@@ 8736
Spe@@ 8737
egen 8738
PT 8739
ae-200@@ 8740
Krankheiten 8741
Eri@@ 8742
accompanied 8743
predic@@ 8744
ppen 8745
absol@@ 8746
unto 8747
Europäer 8748
dä@@ 8749
Termin@@ 8750
Lesung 8751
betrachten 8752
onto 8753
mali@@ 8754
visu@@ 8755
dürfte 8756
grow 8757
Inv@@ 8758
mangel@@ 8759
K0@@ 8760
digitalen 8761
Stad@@ 8762
aming 8763
ologischen 8764
Through 8765
valuable 8766
CS 8767
Events 8768
erinnert 8769
gni@@ 8770
Komm@@ 8771
elled 8772
providers 8773
amerikanische 8774
communications 8775
Lieb@@ 8776
Tisch 8777
eries 8778
versi@@ 8779
russischen 8780
capable 8781
Unterschied 8782
hat@@ 8783
schönsten 8784
bürger@@ 8785
walls 8786
depends 8787
removed 8788
practitioners 8789
Invest@@ 8790
preis@@ 8791
zahl@@ 8792
EU-Mitgliedstaaten 8793
PAR@@ 8794
Asyl@@ 8795
constant 8796
nummer 8797
Industry 8798
component 8799
kraft@@ 8800
recorded 8801
dest@@ 8802
sson 8803
intention 8804
enormous 8805
Kir@@ 8806
Schulen 8807
120@@ 8808
kö@@ 8809
well@@ 8810
spanischen 8811
Maschinen@@ 8812
geleitet 8813
Ep@@ 8814
sustainability 8815
Wir@@ 8816
spi@@ 8817
zieren 8818
feed 8819
geräte 8820
ey@@ 8821
Zunächst 8822
tigkeiten 8823
Those 8824
wachsen 8825
FA@@ 8826
Aut@@ 8827
corresponding 8828
equality 8829
Boden@@ 8830
Flüge 8831
medium-sized 8832
RO 8833
rus 8834
UT@@ 8835
Voraussetzung 8836
heraus 8837
Schiffe 8838
gänge 8839
hung 8840
wand 8841
Charles 8842
Ordnung 8843
Städten 8844
studio 8845
explain 8846
compensation 8847
zuständige 8848
wel@@ 8849
Valley 8850
supplier 8851
Lieferung 8852
doors 8853
wirksam 8854
bing 8855
welchen 8856
Wand@@ 8857
awareness 8858
Fas@@ 8859
zustimmen 8860
schlagen 8861
Fähigkeiten 8862
ahn@@ 8863
Lü@@ 8864
hinweisen 8865
Wirtschaft@@ 8866
Engineering 8867
lam@@ 8868
Light 8869
bekann@@ 8870
enhance 8871
liste 8872
enc@@ 8873
Vista 8874
Weiter@@ 8875
Blu@@ 8876
zahl 8877
heavy 8878
hingewiesen 8879
considers 8880
Cle@@ 8881
tivität 8882
vic 8883
concert 8884
denk@@ 8885
mandate 8886
Geschäfte 8887
Britain 8888
schli@@ 8889
creates 8890
iPhone 8891
breit@@ 8892
nde 8893
olo 8894
scientists 8895
battery 8896
supplies 8897
anerkannt 8898
Beide 8899
Catholic 8900
kontaktieren 8901
fach@@ 8902
Struktur@@ 8903
täts@@ 8904
helping 8905
suffering 8906
zustellen 8907
effectiveness 8908
einzigartige 8909
competence 8910
spei@@ 8911
Congress 8912
sichere 8913
scht 8914
Verfolgung 8915
absor@@ 8916
sozi@@ 8917
FL@@ 8918
displayed 8919
President-in-Office 8920
phones 8921
plastic 8922
acting 8923
gste 8924
appeared 8925
Tool 8926
Industrial 8927
quali@@ 8928
Einstellung 8929
Inform@@ 8930
ersetzt 8931
specified 8932
drugs 8933
swi@@ 8934
dering 8935
GA 8936
entgegen@@ 8937
forget 8938
zieht 8939
tus 8940
discovered 8941
CAR@@ 8942
sicherstellen 8943
ausgezeichnet 8944
Alternative 8945
kinds 8946
nennen 8947
istic 8948
elling 8949
signs 8950
quick 8951
suppliers 8952
egel@@ 8953
Avatar 8954
EURO@@ 8955
Finanzierungs@@ 8956
radi@@ 8957
sul@@ 8958
illi@@ 8959
Py@@ 8960
bedau@@ 8961
doesn 8962
Big 8963
Kommentare 8964
verfügbaren 8965
Red@@ 8966
decken 8967
temporary 8968
Klima 8969
stration 8970
sonst 8971
loo@@ 8972
Filme 8973
mati@@ 8974
Hau@@ 8975
Faktoren 8976
garantieren 8977
adults 8978
jährige 8979
ensures 8980
Gallery 8981
Ken@@ 8982
extrem 8983
kannst 8984
DU@@ 8985
roman@@ 8986
lad@@ 8987
Stockholm 8988
eini@@ 8989
ú@@ 8990
thin 8991
unmittelbar 8992
leiden 8993
raw 8994
Gedanken 8995
Glob@@ 8996
Welche 8997
wiederum 8998
Abschnitt 8999
stru@@ 9000
submit 9001
2-7 9002
aufmerksam 9003
Earth 9004
leh@@ 9005
wissenschaftliche 9006
Patent@@ 9007
Mach@@ 9008
post-@@ 9009
high-quality 9010
artistic 9011
covering 9012
Schäden 9013
387@@ 9014
expert 9015
Empf@@ 9016
Plu@@ 9017
ector 9018
Jean 9019
DN@@ 9020
ennen 9021
verschiedener 9022
iler 9023
Kurz@@ 9024
Politiker 9025
Alliance 9026
taxes 9027
Hong 9028
Clo@@ 9029
Haut 9030
iner 9031
dur@@ 9032
tabled 9033
Militär@@ 9034
newly 9035
spartner 9036
Projek@@ 9037
offensichtlich 9038
Nummer 9039
confirm 9040
speci@@ 9041
restrictions 9042
druck@@ 9043
erfolgreiche 9044
owners 9045
2.5 9046
Gran 9047
eien 9048
Franz 9049
ange 9050
ean 9051
tically 9052
kurze 9053
geltenden 9054
department 9055
Firmen@@ 9056
Viertel 9057
alli@@ 9058
Guest 9059
exports 9060
functional 9061
aly@@ 9062
any@@ 9063
förder@@ 9064
übernommen 9065
Find 9066
ished 9067
Louis 9068
dynam@@ 9069
Archi@@ 9070
harmon@@ 9071
ST 9072
wesentliche 9073
gearbeitet 9074
Ange@@ 9075
Cir@@ 9076
CN@@ 9077
umzusetzen 9078
reflect 9079
sla@@ 9080
Halle 9081
separ@@ 9082
nations 9083
Berg 9084
1987 9085
Š@@ 9086
tari@@ 9087
ktor 9088
schem 9089
untersucht 9090
rohr 9091
ck-@@ 9092
hervor 9093
bequem 9094
übernimmt 9095
Zer@@ 9096
opposite 9097
gi 9098
n-@@ 9099
Hof 9100
vice 9101
Dresden 9102
stran@@ 9103
gesellschaften 9104
mic 9105
Fernseh@@ 9106
amt 9107
Genehmigung 9108
Log 9109
pil@@ 9110
proc@@ 9111
bought 9112
menschliche 9113
Absicht 9114
475@@ 9115
western 9116
tierte 9117
lers 9118
Herz 9119
Get@@ 9120
Small 9121
orts 9122
BM@@ 9123
Verbreitung 9124
remote 9125
Kong 9126
nom@@ 9127
Vereinbarungen 9128
design@@ 9129
Landes@@ 9130
interior 9131
Aktionsplan 9132
übernachten 9133
8x 9134
Pul@@ 9135
Reisen 9136
chern 9137
Technische 9138
fü@@ 9139
tech 9140
Büro 9141
Chile 9142
Gener@@ 9143
ao 9144
ered 9145
division 9146
Organis@@ 9147
Websites 9148
zig 9149
kno@@ 9150
spek@@ 9151
Zivilgesellschaft 9152
Verbesserungen 9153
satz@@ 9154
Umsatz 9155
Leipzig 9156
stehende 9157
Sab@@ 9158
Gerichte 9159
description 9160
Sony 9161
faster 9162
ash 9163
teilungen 9164
GNU 9165
play@@ 9166
Take 9167
natürliche 9168
Blog 9169
Corporate 9170
Al 9171
histor@@ 9172
rati@@ 9173
prozesses 9174
Festlegung 9175
e- 9176
rock 9177
Lot 9178
seconds 9179
lay 9180
ständige 9181
fein@@ 9182
hardware 9183
housing 9184
Baltic 9185
fes 9186
wichtiges 9187
denden 9188
s.@@ 9189
drivers 9190
anna 9191
ols 9192
Abbildung 9193
elektronischen 9194
obtained 9195
spot 9196
thermal 9197
künftig 9198
scene 9199
Online-Buchung 9200
expectations 9201
declaration 9202
Stiftung 9203
Mün@@ 9204
gue 9205
teten 9206
smus 9207
oriented 9208
Haartrockner 9209
Edi@@ 9210
früheren 9211
schung 9212
weisung 9213
bestand 9214
portal 9215
competent 9216
Alp@@ 9217
add@@ 9218
Rio 9219
wechsel@@ 9220
Kit@@ 9221
stechnik 9222
1980 9223
contacts 9224
s. 9225
schö@@ 9226
couple 9227
Oper@@ 9228
Risiko@@ 9229
imports 9230
Tru@@ 9231
Sup@@ 9232
verringern 9233
infringement 9234
Willen 9235
paragraph 9236
einfachen 9237
U.S. 9238
Kritik 9239
ares 9240
höheren 9241
Märkten 9242
Überblick 9243
Spei@@ 9244
praktisch 9245
Nat@@ 9246
Ski 9247
bestehende 9248
Hü@@ 9249
gespielt 9250
washing 9251
H-@@ 9252
Access 9253
scri@@ 9254
Rechts 9255
Leu@@ 9256
Bibliothek 9257
topics 9258
Element 9259
reaching 9260
latter 9261
miss@@ 9262
Samsung 9263
arbeitete 9264
oper@@ 9265
colours 9266
zahlung 9267
Schloss 9268
Immobili@@ 9269
Richard 9270
blowjob 9271
proposes 9272
dens 9273
Differ@@ 9274
Exchange 9275
bles 9276
liefer@@ 9277
reserved 9278
chtes 9279
kün@@ 9280
responsibilities 9281
erfolgreichen 9282
nungen 9283
Stu@@ 9284
ji@@ 9285
Hinter@@ 9286
Date 9287
din 9288
Studenten 9289
steuer@@ 9290
meat 9291
returned 9292
exists 9293
wä@@ 9294
Blut@@ 9295
leben@@ 9296
deten 9297
updates 9298
Maschine 9299
Gespräche 9300
dinner 9301
Nah@@ 9302
Christmas 9303
cam@@ 9304
Systemen 9305
ließ 9306
struktur 9307
dul@@ 9308
chair 9309
anniversary 9310
collective 9311
ne-@@ 9312
dex 9313
Medical 9314
integriert 9315
Computer@@ 9316
Geschmack 9317
iness 9318
Person@@ 9319
tum 9320
recognised 9321
reduziert 9322
feeling 9323
researchers 9324
,5 9325
kam@@ 9326
ösen 9327
Ga@@ 9328
Hon@@ 9329
Golf@@ 9330
kurzen 9331
Portal 9332
Gesellschaften 9333
chem@@ 9334
ENT@@ 9335
nahezu 9336
betreffen 9337
Partnership 9338
Father 9339
ski@@ 9340
verlieren 9341
betonen 9342
nieder@@ 9343
hau@@ 9344
ham 9345
sively 9346
wealth 9347
heritage 9348
Che@@ 9349
explore 9350
keinerlei 9351
Prozesse 9352
ñ@@ 9353
caf@@ 9354
respon@@ 9355
magnetic 9356
sern 9357
Les 9358
seeking 9359
var@@ 9360
actively 9361
lang@@ 9362
Tools 9363
Cologne 9364
geschieht 9365
fi 9366
privacy 9367
enes 9368
pack@@ 9369
define 9370
arbeit@@ 9371
Lev@@ 9372
U-@@ 9373
dance 9374
Einkaufs@@ 9375
dio@@ 9376
PP@@ 9377
Downloads 9378
ütz@@ 9379
plates 9380
rating 9381
Bou@@ 9382
diameter 9383
Wissenschaftler 9384
Obama 9385
maintained 9386
declared 9387
Ehr@@ 9388
Rechnungs@@ 9389
starten 9390
Erzeugnisse 9391
fourth 9392
Experim@@ 9393
Marken 9394
delay 9395
wann 9396
wh@@ 9397
1985 9398
sheet 9399
unc@@ 9400
Trump 9401
Diskriminierung 9402
Wat@@ 9403
weite 9404
highlight 9405
mix 9406
beu@@ 9407
Protocol 9408
affairs 9409
profession@@ 9410
Hard@@ 9411
agu@@ 9412
erhebliche 9413
Client 9414
Bern@@ 9415
Mei@@ 9416
trend 9417
perfekt 9418
Sanktionen 9419
banking 9420
ann 9421
entes 9422
konferenz 9423
Within 9424
pfen 9425
passengers 9426
Ausführung 9427
Sta@@ 9428
Grill 9429
entwickelte 9430
µm 9431
Ausgangspunkt 9432
sexual 9433
frequency 9434
directory 9435
453@@ 9436
fle@@ 9437
hier@@ 9438
14.@@ 9439
dau@@ 9440
eye 9441
floors 9442
Basel 9443
compact 9444
steam 9445
Total 9446
fraud 9447
Angst 9448
Kommun@@ 9449
< 9450
hinzugefügt 9451
tec 9452
direkten 9453
organisationen 9454
makers 9455
Top 9456
ziemlich 9457
Chancen 9458
colors 9459
inzwischen 9460
Umfeld 9461
measurement 9462
panel 9463
Mikrowelle 9464
15.@@ 9465
gewi@@ 9466
Lebensmittel 9467
1986 9468
pointed 9469
Putin 9470
GN@@ 9471
SD@@ 9472
largely 9473
seat 9474
los@@ 9475
griffen 9476
Viol@@ 9477
Körper@@ 9478
nötig 9479
Straßen 9480
BC 9481
tom@@ 9482
stä@@ 9483
langfristige 9484
ily 9485
zeug 9486
Sant 9487
Nevertheless 9488
Schlüssel 9489
knows 9490
wirtschaftlicher 9491
Standort 9492
uter 9493
Ball@@ 9494
erscheinen 9495
ordin@@ 9496
sensor 9497
Slovakia 9498
Straf@@ 9499
schnell@@ 9500
gehenden 9501
Three 9502
ech@@ 9503
tennis 9504
Interess@@ 9505
RS@@ 9506
gam@@ 9507
involvement 9508
sit@@ 9509
Französisch 9510
bility 9511
1P 9512
fridge 9513
lan 9514
ford 9515
aktiviert 9516
Module 9517
Massage 9518
gemeinschaft 9519
estimated 9520
breiten 9521
Norway 9522
desk 9523
comparison 9524
Zusch@@ 9525
angel@@ 9526
Dort 9527
joined 9528
fun@@ 9529
Urteil 9530
FT@@ 9531
gh 9532
dunk@@ 9533
Coun@@ 9534
hinzu 9535
solid 9536
Fischer 9537
strategischen 9538
Kä@@ 9539
BA@@ 9540
ish@@ 9541
Such@@ 9542
aling 9543
Extre@@ 9544
entstanden 9545
Bevor 9546
Parti@@ 9547
Sei@@ 9548
lived 9549
wirk@@ 9550
präsentieren 9551
Ebenso 9552
officials 9553
Plas@@ 9554
charming 9555
Black@@ 9556
sort 9557
lieben 9558
projekt 9559
Erwachsene 9560
stellungs@@ 9561
Erwartungen 9562
teams 9563
Internal 9564
cross 9565
proved 9566
Köni@@ 9567
Genießen 9568
Journal 9569
Ros@@ 9570
Haben 9571
Zwecke 9572
werfen 9573
spiritual 9574
Islam 9575
ent-@@ 9576
com 9577
AI@@ 9578
ading 9579
virus 9580
brechen 9581
inkl 9582
eil 9583
requirement 9584
fighting 9585
Fire@@ 9586
obvious 9587
CE@@ 9588
facility 9589
-M@@ 9590
vieles 9591
hr 9592
rare 9593
eingehen 9594
wear 9595
magne@@ 9596
Frühstücksbuffet 9597
Diskussionen 9598
tre 9599
Cha@@ 9600
wrote 9601
ller 9602
Campingplätze 9603
leiten 9604
akzeptiert 9605
Grad 9606
verursacht 9607
bereichen 9608
Schön@@ 9609
klein@@ 9610
erend 9611
Mart@@ 9612
dad 9613
Rest 9614
ua 9615
trop@@ 9616
Log@@ 9617
ow 9618
Double 9619
oring 9620
Je 9621
musste 9622
Samm@@ 9623
Drittländern 9624
sanctions 9625
MFD 9626
milk 9627
stände 9628
involving 9629
Get 9630
attri@@ 9631
lamp 9632
province 9633
vorher@@ 9634
bathrooms 9635
Bud@@ 9636
Übersetzung 9637
ci 9638
insi@@ 9639
studied 9640
yes 9641
religion 9642
funktion@@ 9643
examine 9644
Km 9645
Bestellung 9646
ino@@ 9647
Darlehen 9648
oma 9649
stimme 9650
keeping 9651
gestellten 9652
gent@@ 9653
EG-@@ 9654
showed 9655
Verzeichnis 9656
pla@@ 9657
elen 9658
Library 9659
ais 9660
inner@@ 9661
Net 9662
15-@@ 9663
arm 9664
Geo@@ 9665
Space 9666
Halb@@ 9667
Solutions 9668
mg 9669
Holz 9670
gerufen 9671
feststellen 9672
Versuch 9673
Abschließend 9674
Vel@@ 9675
sid@@ 9676
Schönheit 9677
diagno@@ 9678
Schluss 9679
oria 9680
perfekte 9681
thy 9682
archi@@ 9683
Garantie 9684
facts 9685
Ägypten 9686
Wirklichkeit 9687
üssen 9688
ursprünglichen 9689
Himmel 9690
VER@@ 9691
ähnliche 9692
sz@@ 9693
Are 9694
Köln 9695
isti@@ 9696
reserve 9697
sugar 9698
Gemeinschaften 9699
Ansch@@ 9700
betra@@ 9701
SL@@ 9702
Go 9703
northern 9704
totally 9705
Finanzen 9706
girl 9707
rahmen 9708
utz@@ 9709
Grün@@ 9710
Gesetze 9711
gres@@ 9712
oli 9713
Moscow 9714
reise 9715
öff@@ 9716
züge 9717
Internation@@ 9718
FOR@@ 9719
begrenzt 9720
bestä@@ 9721
sitz 9722
Telefon@@ 9723
ji 9724
dokum@@ 9725
sah 9726
.-@@ 9727
Syria 9728
Programm@@ 9729
zeugen 9730
UN-@@ 9731
Vill@@ 9732
schafft 9733
ulated 9734
cken@@ 9735
Anliegen 9736
legte 9737
Ltd 9738
charges 9739
Fuß@@ 9740
Eindruck 9741
dium 9742
emphasis 9743
Sul@@ 9744
Porsche 9745
sharing 9746
producing 9747
künftige 9748
Texas 9749
ential 9750
gone 9751
Indian 9752
comment 9753
Verbrechen 9754
erneu@@ 9755
Northern 9756
grundlegenden 9757
tivity 9758
perform 9759
eingeb@@ 9760
RA 9761
cky 9762
yers 9763
betreffend 9764
documentation 9765
Sum@@ 9766
slow 9767
buch 9768
Lou@@ 9769
150@@ 9770
Staatsan@@ 9771
eastern 9772
Employment 9773
Bush 9774
mitten 9775
Professional 9776
effiziente 9777
Herbst 9778
kurzem 9779
surroundings 9780
ico 9781
CI@@ 9782
corner 9783
zentren 9784
burden 9785
Et@@ 9786
verkehrs 9787
corruption 9788
Verträge 9789
Bildern 9790
Zürich 9791
decorated 9792
sport@@ 9793
kri@@ 9794
sach@@ 9795
220 9796
strah@@ 9797
gefähr@@ 9798
Assembly 9799
actors 9800
towels 9801
gan 9802
bestimmter 9803
Religion 9804
lied 9805
alia 9806
kum@@ 9807
reiche 9808
domin@@ 9809
tlichen 9810
Formular 9811
CPU 9812
heben 9813
Fron@@ 9814
Besitz 9815
magazine 9816
TDI 9817
egt 9818
Strecke 9819
ust 9820
bekämpfung 9821
Projekts 9822
Völker 9823
university 9824
garten 9825
Insbesondere 9826
Type 9827
digitale 9828
stronger 9829
erzeugt 9830
sü@@ 9831
Distance 9832
Puerto 9833
Chem@@ 9834
scho@@ 9835
past@@ 9836
rechtliche 9837
beschränkt 9838
vorgestellt 9839
Entwicklungsländern 9840
GPS 9841
Chairman 9842
Fahrt 9843
Glauben 9844
exceptional 9845
Nahen 9846
ques 9847
someone 9848
entertainment 9849
fts 9850
traditionelle 9851
Sekunden 9852
distributed 9853
cus 9854
mostly 9855
punkte 9856
verkehrs@@ 9857
license 9858
Mitarbeitern 9859
wege 9860
ED 9861
VA 9862
Untersuchungen 9863
Chamber 9864
gratu@@ 9865
funded 9866
saving 9867
Waffen 9868
Pr@@ 9869
gewis@@ 9870
ück@@ 9871
Inc 9872
1.2 9873
Ausgewählt 9874
Bars 9875
judicial 9876
Steuerung 9877
aching 9878
Abmessungen 9879
Auflösung 9880
girls 9881
helped 9882
basi@@ 9883
schein@@ 9884
Nord 9885
eckt 9886
chi 9887
Anstieg 9888
entscheidend 9889
Schnittstelle 9890
struc@@ 9891
Dimensions 9892
reply 9893
PD@@ 9894
ed-@@ 9895
nine 9896
Chosen 9897
direkte 9898
pet@@ 9899
Lok@@ 9900
dark 9901
äumen 9902
indicated 9903
LIN@@ 9904
Waschmaschine 9905
ull 9906
agen 9907
Renn@@ 9908
helpful 9909
rapidly 9910
Kontext 9911
Umständen 9912
oli@@ 9913
Bade@@ 9914
grundlegende 9915
vertrag 9916
Len@@ 9917
äch@@ 9918
OT@@ 9919
85@@ 9920
fashion 9921
Transport@@ 9922
verbindet 9923
Ankunft 9924
manual 9925
streets 9926
ont@@ 9927
municipality 9928
GF 9929
analyse 9930
Finance 9931
geplant 9932
üsse 9933
1945 9934
messen 9935
scre@@ 9936
HP 9937
Insgesamt 9938
Hungarian 9939
Chinas 9940
Shar@@ 9941
Radi@@ 9942
flows 9943
exciting 9944
häl@@ 9945
alls 9946
zuerst 9947
pur@@ 9948
unable 9949
tree 9950
continuous 9951
intellectual 9952
rum 9953
Sektoren 9954
gewonnen 9955
110@@ 9956
glei@@ 9957
GO 9958
toilet 9959
Kopf 9960
stück 9961
millions 9962
angemessene 9963
99@@ 9964
staat 9965
teste 9966
Force 9967
konkreten 9968
camp 9969
verl@@ 9970
Aktu@@ 9971
precise 9972
bright 9973
mid-@@ 9974
Stock@@ 9975
reden 9976
cing 9977
encies 9978
vertre@@ 9979
beschrieben 9980
verfahrens 9981
Dem 9982
Wolfgang 9983
Play@@ 9984
ction 9985
wait 9986
Internet-@@ 9987
xHamster 9988
Hier@@ 9989
Sek@@ 9990
Brau@@ 9991
oured 9992
opinions 9993
änden 9994
Residence 9995
dende 9996
angemessen 9997
blu@@ 9998
putting 9999
Anmeldung 10000
berechtigt 10001
Demokrati@@ 10002
Nachfolgend 10003
cancer 10004
ap 10005
bun@@ 10006
RI@@ 10007
anhand 10008
32@@ 10009
französische 10010
einerseits 10011
diskutiert 10012
Mili@@ 10013
mechan@@ 10014
Inn@@ 10015
heutige 10016
enabled 10017
Constitution 10018
wines 10019
ums@@ 10020
filled 10021
concepts 10022
Identität 10023
Erholung 10024
verantwor@@ 10025
bed@@ 10026
Karl 10027
eres 10028
städ@@ 10029
mAh 10030
unfortunately 10031
Bett 10032
schlag@@ 10033
Letz@@ 10034
wife 10035
wünsche 10036
J. 10037
Durchmesser 10038
gesp@@ 10039
Serbia 10040
Quartal 10041
Kamp@@ 10042
evol@@ 10043
Slowakei 10044
herr@@ 10045
Fläche 10046
lösungen 10047
hydro@@ 10048
ure@@ 10049
messages 10050
és 10051
Zielen 10052
Ky@@ 10053
größe 10054
Kil@@ 10055
ursprünglich 10056
Rep@@ 10057
conclude 10058
tö@@ 10059
führten 10060
Country 10061
Liberalisierung 10062
pollution 10063
unternommen 10064
neun 10065
Auftrags@@ 10066
bly 10067
Gegenteil 10068
holds 10069
Over@@ 10070
Antonio 10071
Atlantic 10072
Co. 10073
Program 10074
orial 10075
rot 10076
Gab@@ 10077
näher 10078
allgemein 10079
Conc@@ 10080
lots 10081
programming 10082
upper 10083
arbeits@@ 10084
Georgia 10085
con 10086
ade@@ 10087
mechanical 10088
taxation 10089
best@@ 10090
Democrats 10091
ax 10092
Don 10093
Entscheidungs@@ 10094
ital 10095
Initi@@ 10096
Cast@@ 10097
fiziert 10098
optional 10099
Bis@@ 10100
Trotz 10101
Sehr 10102
amongst 10103
reduzieren 10104
Hir@@ 10105
prec@@ 10106
asking 10107
verlangen 10108
3.0 10109
erie 10110
stages 10111
Gemeinschaft@@ 10112
echten 10113
Mini 10114
Wachstums@@ 10115
fers 10116
Tür@@ 10117
stim@@ 10118
stan 10119
ists 10120
befassen 10121
import 10122
LAN@@ 10123
maritime 10124
Sonn@@ 10125
schu@@ 10126
Jes@@ 10127
betrieben 10128
Eröffnung 10129
ume 10130
ticket 10131
electrical 10132
lift 10133
DR 10134
Hen@@ 10135
sor 10136
Youth 10137
Cup 10138
Geneva 10139
merely 10140
parti@@ 10141
Form@@ 10142
Mü@@ 10143
connect 10144
opens 10145
Gebrauch 10146
appearance 10147
exception 10148
Naz@@ 10149
Kooperations@@ 10150
coll@@ 10151
yesterday 10152
Krankheit 10153
cou@@ 10154
Erstellung 10155
ekt 10156
prot@@ 10157
sicheren 10158
parameters 10159
Ebenen 10160
kali@@ 10161
sett@@ 10162
enforcement 10163
iss@@ 10164
Sicher@@ 10165
CD-@@ 10166
Besonders 10167
funktionieren 10168
pleasure 10169
quo@@ 10170
Under@@ 10171
isen 10172
remin@@ 10173
Zubehör 10174
Dev@@ 10175
cutting 10176
Level 10177
slightly 10178
Gut@@ 10179
Konferenz@@ 10180
Newsletter 10181
Eth@@ 10182
pping 10183
Filter 10184
Kö@@ 10185
Modul 10186
Corporation 10187
Verhandlungs@@ 10188
Monte 10189
High-@@ 10190
Regional@@ 10191
fees 10192
Maxim@@ 10193
Angriff 10194
treat 10195
GI@@ 10196
transpor@@ 10197
behandeln 10198
imposed 10199
TS@@ 10200
erwar@@ 10201
wohnen 10202
Soviet 10203
nissen 10204
räumen 10205
vic@@ 10206
techniques 10207
gebung 10208
V. 10209
iniert 10210
Products 10211
Lounge 10212
Blan@@ 10213
vorgenommen 10214
wireless 10215
ration 10216
lica 10217
finding 10218
nes 10219
ergänzt 10220
angepasst 10221
erien 10222
eth 10223
Modern 10224
Modernisierung 10225
Store 10226
genauso 10227
derte 10228
consul@@ 10229
verstärken 10230
Scho@@ 10231
conf@@ 10232
drücken 10233
Bour@@ 10234
Anti-@@ 10235
aring 10236
Mio 10237
layer 10238
34@@ 10239
med@@ 10240
andererseits 10241
bi 10242
solve 10243
Werbung 10244
Zone 10245
cross@@ 10246
Pflanzen 10247
durchzuführen 10248
specialist 10249
conventional 10250
renowned 10251
servi@@ 10252
Hohe 10253
Funds 10254
änge 10255
optimale 10256
segment 10257
fikation 10258
wellness 10259
hervorragende 10260
Geschäft@@ 10261
FS@@ 10262
466@@ 10263
Leg@@ 10264
Autor 10265
trends 10266
zin@@ 10267
Geschwindigkeit 10268
disk 10269
gence 10270
Einbeziehung 10271
Kabel 10272
TO 10273
ases 10274
betrieb@@ 10275
ples 10276
Peti@@ 10277
Rol@@ 10278
educational 10279
000@@ 10280
Ander@@ 10281
Schengen 10282
drop 10283
usage 10284
2,5 10285
vulnerable 10286
tables 10287
Min 10288
Abendessen 10289
Ay@@ 10290
mol@@ 10291
settlement 10292
productivity 10293
SK@@ 10294
pure 10295
freundlich 10296
universities 10297
enten@@ 10298
veränder@@ 10299
celeb@@ 10300
ston 10301
copyright 10302
objek@@ 10303
raten 10304
Parlament@@ 10305
passenger 10306
examination 10307
Individu@@ 10308
Patent 10309
mus@@ 10310
arischen 10311
politisch 10312
desired 10313
Hall@@ 10314
Eigentum 10315
Next 10316
diversi@@ 10317
größer 10318
chtige 10319
jemand 10320
Kauf 10321
MM@@ 10322
ova 10323
addresses 10324
containing 10325
Umgang 10326
keiner 10327
kt@@ 10328
seitens 10329
65@@ 10330
Frist 10331
beruht 10332
Zypern 10333
Führungs@@ 10334
Drogen@@ 10335
musical 10336
netz@@ 10337
22.@@ 10338
fehl@@ 10339
gnis@@ 10340
willing 10341
certified 10342
statistics 10343
Regime 10344
dit@@ 10345
Islands 10346
Dro@@ 10347
Haftung 10348
cash 10349
vorlegen 10350
kanische 10351
mach@@ 10352
Estate 10353
Where 10354
leiter 10355
eld 10356
aufnehmen 10357
dry 10358
Öl 10359
integrierten 10360
College 10361
lists 10362
Objekt 10363
offiziellen 10364
kes@@ 10365
Bom@@ 10366
esse 10367
concentration 10368
replaced 10369
savings 10370
Key@@ 10371
adap@@ 10372
mi 10373
aufzunehmen 10374
Holding 10375
gener 10376
Mitgliedschaft 10377
aner 10378
gin@@ 10379
Event 10380
DE@@ 10381
Währungs@@ 10382
frequ@@ 10383
password 10384
Lis@@ 10385
illa 10386
understood 10387
beit@@ 10388
Vorsch@@ 10389
patient 10390
Konflikt 10391
erreichbar 10392
prize 10393
gestaltet 10394
Despite 10395
Logo 10396
Portuguese 10397
bevorzu@@ 10398
tackle 10399
theory 10400
Typ@@ 10401
Gemeinsame 10402
wave 10403
teen 10404
besitzen 10405
hit 10406
Afri@@ 10407
Niederlanden 10408
iting 10409
Fast 10410
avi@@ 10411
Kurs 10412
renovated 10413
consensus 10414
xes 10415
vollkommen 10416
Ware 10417
Montenegro 10418
EPC 10419
zeichn@@ 10420
Erstellt 10421
virtual 10422
Prozess@@ 10423
-TV 10424
assess 10425
fr@@ 10426
ig 10427
fans 10428
griechischen 10429
Aufsichts@@ 10430
Sterne 10431
Wetter 10432
Copenhagen 10433
tain 10434
gangs 10435
rein 10436
SH@@ 10437
reporting 10438
dungs@@ 10439
tou@@ 10440
1984 10441
peoples 10442
sers 10443
ild 10444
Hannover 10445
Ner@@ 10446
weekend 10447
zog 10448
Beihilfe 10449
prove 10450
deals 10451
lo 10452
Walter 10453
strategische 10454
Lithuania 10455
einheitlichen 10456
student 10457
continent 10458
Vom 10459
Betrag 10460
label 10461
Asi@@ 10462
finde 10463
transactions 10464
ever@@ 10465
ags 10466
symbol 10467
450 10468
feu@@ 10469
fair@@ 10470
convenient 10471
Tonnen 10472
amed 10473
einf@@ 10474
anim@@ 10475
märkte 10476
lounge 10477
exit 10478
Potenzial 10479
gradu@@ 10480
lighting 10481
Travel 10482
Maß 10483
verurteilt 10484
alter@@ 10485
sucht 10486
Abs@@ 10487
Keine 10488
verlangt 10489
bet 10490
Siemens 10491
Abgeordnete 10492
tia 10493
ests 10494
transferred 10495
reserves 10496
Oli@@ 10497
Tel 10498
boards 10499
sk 10500
cast 10501
Welcome 10502
Publi@@ 10503
drink 10504
wat@@ 10505
boost 10506
frag@@ 10507
custom@@ 10508
missing 10509
ausgesetzt 10510
Capital 10511
conflicts 10512
Geschäft 10513
microwave 10514
Flüchtlinge 10515
yellow 10516
Wur@@ 10517
expor@@ 10518
ancy 10519
emerging 10520
relative 10521
esp@@ 10522
instructions 10523
summ@@ 10524
Bücher 10525
islands 10526
fro@@ 10527
spir@@ 10528
2-3 10529
Oberfläche 10530
mäßi@@ 10531
berei@@ 10532
teaching 10533
gues 10534
frequently 10535
construc@@ 10536
productive 10537
generate 10538
leistungen 10539
dating 10540
raums 10541
Bonn 10542
typ@@ 10543
tier 10544
alisi@@ 10545
räger 10546
Order 10547
west@@ 10548
Kulturen 10549
revolution 10550
But@@ 10551
Handtücher 10552
operator 10553
certification 10554
lex@@ 10555
deut@@ 10556
linien 10557
hinzufügen 10558
hör@@ 10559
diff@@ 10560
Java 10561
Vietnam 10562
will@@ 10563
standen 10564
explained 10565
ähn@@ 10566
swe@@ 10567
Sound 10568
bekannte 10569
16.@@ 10570
Arbeitsmarkt 10571
170 10572
Meinungs@@ 10573
Erfüllung 10574
agt 10575
angesprochen 10576
producer 10577
Des 10578
vacation 10579
Nachhaltigkeit 10580
Arbeitsplätzen 10581
niedri@@ 10582
Pum@@ 10583
dream 10584
ok@@ 10585
enhanced 10586
klin@@ 10587
Refer@@ 10588
ingt 10589
rän@@ 10590
terrorist 10591
30-@@ 10592
TM 10593
female 10594
acceptable 10595
determination 10596
Venice 10597
17.@@ 10598
Papier 10599
Gerechtigkeit 10600
proven 10601
tend 10602
fitness 10603
Shanghai 10604
By@@ 10605
eting 10606
schwierigen 10607
modell 10608
Kontakte 10609
som@@ 10610
ausgeschlossen 10611
barriers 10612
sam 10613
Verwirklichung 10614
sand@@ 10615
Minibar 10616
Taiwan 10617
Objekte 10618
ergriffen 10619
Memory 10620
herzlich 10621
assembly 10622
D. 10623
geni@@ 10624
roads 10625
ege 10626
schätzen 10627
lichsten 10628
institutionellen 10629
frühen 10630
plate 10631
short@@ 10632
esc@@ 10633
interpretation 10634
unacceptable 10635
wed 10636
sizes 10637
Bit@@ 10638
Ansichten 10639
ause 10640
Sudan 10641
Original 10642
ament 10643
regelung 10644
nehmer 10645
sitz@@ 10646
Vertretern 10647
ausgerichtet 10648
equally 10649
Polizei 10650
Ly@@ 10651
Emi@@ 10652
eingeleitet 10653
bou@@ 10654
fig@@ 10655
graphie 10656
Slovenia 10657
PHP 10658
occur 10659
Schwar@@ 10660
Declaration 10661
replace 10662
mische 10663
2nd 10664
Parameter 10665
Prüf@@ 10666
Doppelbett 10667
alisierten 10668
egi@@ 10669
Avi@@ 10670
organis@@ 10671
remained 10672
step@@ 10673
ald 10674
ester@@ 10675
conver@@ 10676
akte 10677
Männern 10678
See@@ 10679
Basic 10680
onal 10681
acks 10682
Geschäftsführer 10683
selbstklebende 10684
windows 10685
winning 10686
Verteidigung 10687
stance 10688
Mexiko 10689
Tages 10690
kämpfen 10691
ased 10692
früh@@ 10693
printed 10694
Mary 10695
Emissionen 10696
lob@@ 10697
inhabitants 10698
erlauben 10699
gebieten 10700
gewisse 10701
fähigen 10702
recognized 10703
Tochter 10704
graphics 10705
ektion 10706
stil@@ 10707
Climate 10708
arity 10709
inflation 10710
entwurf 10711
Wald@@ 10712
protecting 10713
Exper@@ 10714
brachte 10715
processed 10716
overcome 10717
leisure 10718
speakers 10719
sinn@@ 10720
HU@@ 10721
consent 10722
Dach@@ 10723
Terminal 10724
van@@ 10725
bislang 10726
Authority 10727
hire 10728
ht 10729
prev@@ 10730
inos 10731
bottom 10732
satisfied 10733
handle 10734
Erk@@ 10735
Übereinstimmung 10736
Software-@@ 10737
kette 10738
Bucht 10739
Konzer@@ 10740
stream 10741
2007-2013 10742
richtet 10743
Salz@@ 10744
deposit 10745
relaxation 10746
egal 10747
vielmehr 10748
Ali@@ 10749
Asian 10750
Firstly 10751
Zusatz@@ 10752
dryer 10753
niemals 10754
studi@@ 10755
gratis 10756
wert@@ 10757
kä@@ 10758
automati@@ 10759
leaves 10760
ario 10761
Norwegen 10762
Wellness 10763
Behin@@ 10764
Stahl@@ 10765
ght@@ 10766
Golden 10767
itä@@ 10768
Fur@@ 10769
blick 10770
gestattet 10771
Port@@ 10772
losses 10773
entsteht 10774
ective 10775
esa 10776
agra@@ 10777
tut 10778
pa 10779
ausgezeichnete 10780
finanzi@@ 10781
Grundrechte 10782
verbringen 10783
Bell@@ 10784
Autos 10785
Kontrollen 10786
bereit@@ 10787
Thank 10788
kti@@ 10789
visual 10790
ames 10791
ails 10792
wipe 10793
happens 10794
verwaltung 10795
Govern@@ 10796
Verbot 10797
NE 10798
glob@@ 10799
Zahlungen 10800
movements 10801
individuelle 10802
Parkplätze 10803
MB@@ 10804
Bli@@ 10805
stischen 10806
visa 10807
long-@@ 10808
faced 10809
Betra@@ 10810
calcul@@ 10811
Werbe@@ 10812
sty 10813
ethnic 10814
participating 10815
chert 10816
welfare 10817
hierzu 10818
1908 10819
belief 10820
verst@@ 10821
elektronische 10822
lock 10823
NL 10824
verändern 10825
recommendation 10826
kel@@ 10827
ray 10828
Innovationen 10829
pass@@ 10830
oph@@ 10831
aktivieren 10832
verse 10833
routes 10834
hiking 10835
Content 10836
niemand 10837
EADS 10838
beteiligen 10839
Ø 10840
prakti@@ 10841
Moh@@ 10842
obviously 10843
Syrien 10844
Aviation 10845
Pon@@ 10846
Symbol 10847
Quellen 10848
genehmi@@ 10849
answers 10850
aktu@@ 10851
deck@@ 10852
zusammenarbeiten 10853
Ausflüge 10854
partly 10855
internationally 10856
verbinden 10857
einzigartigen 10858
Vier@@ 10859
Freund 10860
resolved 10861
Danish 10862
Studi@@ 10863
Jac@@ 10864
häuser 10865
Friedrich 10866
Energieeffizienz 10867
Wochenende 10868
Equ@@ 10869
1973 10870
tot@@ 10871
Suites 10872
Customer 10873
bound 10874
medicine 10875
Massen@@ 10876
drinks 10877
jan 10878
interessiert 10879
Beweis 10880
invest 10881
197@@ 10882
internen 10883
Super 10884
dimensions 10885
Porn 10886
ungs 10887
vereinbart 10888
painting 10889
block@@ 10890
steigt 10891
nahme@@ 10892
operated 10893
Os@@ 10894
wohl@@ 10895
letters 10896
soli@@ 10897
effizient 10898
factory 10899
kleines 10900
Cit@@ 10901
industri@@ 10902
Vorschlägen 10903
GS@@ 10904
gelungen 10905
Digit@@ 10906
Presse 10907
Bö@@ 10908
sozialer 10909
alisiert 10910
politicians 10911
Mir@@ 10912
spon@@ 10913
Maps 10914
wirksame 10915
accessories 10916
trat 10917
luß 10918
isch-@@ 10919
tender 10920
correc@@ 10921
Grunde 10922
gebildet 10923
beteiligten 10924
ce-@@ 10925
match 10926
Stoffe 10927
oll 10928
Kompromiss 10929
vieler 10930
1.1 10931
mine 10932
Wirk@@ 10933
decisive 10934
regarded 10935
aya 10936
piano 10937
Kräfte 10938
porn 10939
succ@@ 10940
programmen 10941
tert 10942
bewer@@ 10943
offene 10944
collected 10945
Abteilung 10946
liter@@ 10947
ausgeführt 10948
Freunden 10949
mouse 10950
Bahn@@ 10951
Wohl@@ 10952
Übergangs@@ 10953
-up 10954
Führer 10955
verhindert 10956
konzentriert 10957
Kn@@ 10958
Regel@@ 10959
sichtbar 10960
Vereinigtes 10961
Branche 10962
Airbus 10963
nar@@ 10964
verbundenen 10965
Eng@@ 10966
ähnlich 10967
ungspolitik 10968
Gegenstand 10969
drug 10970
interessante 10971
einfacher 10972
lion 10973
weit@@ 10974
auff@@ 10975
reibung 10976
Neben@@ 10977
demonstrate 10978
villages 10979
gekauft 10980
managing 10981
gor@@ 10982
Freizeit@@ 10983
Museen 10984
laut 10985
NG@@ 10986
aum 10987
I. 10988
Schaden 10989
Israeli 10990
Berge 10991
COM 10992
Entwicklungsländer 10993
Spaß 10994
Krisen@@ 10995
courts 10996
Handeln 10997
disaster 10998
Eisenbahn@@ 10999
ym@@ 11000
Schlaf@@ 11001
behaviour 11002
weitgehend 11003
chtungen 11004
Wild@@ 11005
Brü@@ 11006
anten@@ 11007
Georg 11008
din@@ 11009
gebnisse 11010
~ 11011
Adri@@ 11012
acted 11013
ems 11014
scheinen 11015
workshop 11016
attitude 11017
visits 11018
dy@@ 11019
Südafrika 11020
hn@@ 11021
Together 11022
Airbrush-Tattoo-Schablonen 11023
produkten 11024
lets 11025
stocks 11026
cheap 11027
Schei@@ 11028
symp@@ 11029
subsidiary 11030
Display 11031
Beteiligten 11032
44@@ 11033
mischen 11034
Passat 11035
CM@@ 11036
Height 11037
thaus 11038
ula 11039
shipping 11040
gestern 11041
widely 11042
Brit@@ 11043
entscheidende 11044
dt 11045
llen 11046
saved 11047
int 11048
danger 11049
dealt 11050
abilität 11051
steh@@ 11052
Nachbar@@ 11053
Landwirte 11054
Exhibition 11055
asser@@ 11056
MON@@ 11057
etzen 11058
Elec@@ 11059
386@@ 11060
Alber@@ 11061
Cru@@ 11062
rac@@ 11063
rats 11064
Eink@@ 11065
operates 11066
Moder@@ 11067
movie 11068
niveau 11069
füllen 11070
täten 11071
count 11072
Representative 11073
kompli@@ 11074
duties 11075
Armen@@ 11076
DL@@ 11077
bezug 11078
Cham@@ 11079
Warenkorb 11080
Objek@@ 11081
chtig 11082
appe@@ 11083
stakeholders 11084
ó 11085
auen 11086
chron@@ 11087
gericht@@ 11088
turen 11089
RT@@ 11090
Nächte 11091
Orte 11092
Lie@@ 11093
0x 11094
MEMO 11095
Kh@@ 11096
eda 11097
chtigkeit 11098
angegeben 11099
alle@@ 11100
Schreiben 11101
cherweise 11102
break@@ 11103
preparing 11104
durchführen 11105
Valencia 11106
hängen 11107
185 11108
Assi@@ 11109
p-@@ 11110
Annual 11111
dependent 11112
absch@@ 11113
einverstanden 11114
Vizepräsident 11115
voran@@ 11116
extraordinary 11117
Operation 11118
flexi@@ 11119
Vorgehen 11120
asses 11121
Tief@@ 11122
Verlust 11123
í 11124
venti@@ 11125
Schüler 11126
gins 11127
EPA 11128
virtu@@ 11129
Mail@@ 11130
miles 11131
Morocco 11132
mes@@ 11133
spolitischen 11134
sodass 11135
Fluss 11136
stag 11137
Bat@@ 11138
Hostel 11139
switch 11140
directives 11141
trags 11142
Anfragen 11143
Direkt@@ 11144
Edinburgh 11145
moral 11146
lasting 11147
fanden 11148
bestimmen 11149
fantastic 11150
stammt 11151
Hö@@ 11152
tende 11153
Mar 11154
fassen 11155
leitung 11156
polis 11157
mächti@@ 11158
Darstellung 11159
uted 11160
Teams 11161
4.0 11162
Rückkehr 11163
Kein 11164
SAP 11165
bestätigen 11166
steigern 11167
Bad@@ 11168
Direk@@ 11169
unabhängigen 11170
Spaziergang 11171
vollständigen 11172
characters 11173
begleitet 11174
Lern@@ 11175
cian 11176
Mid@@ 11177
targeted 11178
Besuchen 11179
nunmehr 11180
auto@@ 11181
visiting 11182
herrscht 11183
financed 11184
CT@@ 11185
ander 11186
Signal 11187
ebene 11188
Hä@@ 11189
00-@@ 11190
May@@ 11191
Building 11192
sau@@ 11193
sierungs@@ 11194
brief 11195
.DLL 11196
afternoon 11197
showing 11198
Islamic 11199
leaving 11200
examined 11201
directed 11202
sit 11203
efully 11204
Höchst@@ 11205
ms@@ 11206
Lad@@ 11207
tigt 11208
destruction 11209
supplied 11210
schluss 11211
derartige 11212
Lit@@ 11213
vorhandenen 11214
keit@@ 11215
198@@ 11216
Billi@@ 11217
Val 11218
190 11219
wild 11220
Terms 11221
hinzu@@ 11222
Patri@@ 11223
definitely 11224
looked 11225
allocated 11226
Mani@@ 11227
ehemalige 11228
enter@@ 11229
Dal@@ 11230
deleted 11231
Zimmer@@ 11232
bon@@ 11233
tickets 11234
ansch@@ 11235
360 11236
Kul@@ 11237
DF 11238
satisfaction 11239
vorgesehenen 11240
notified 11241
zia 11242
Stell@@ 11243
noise 11244
Klassi@@ 11245
gon 11246
selbst@@ 11247
acceler@@ 11248
demonstrated 11249
Ero@@ 11250
silver 11251
Explorer 11252
loans 11253
Dialogs 11254
Prodi 11255
oxi@@ 11256
logistics 11257
pped 11258
64@@ 11259
Rand@@ 11260
countryside 11261
endet 11262
gift 11263
modi@@ 11264
invite 11265
ativer 11266
dauert 11267
äum@@ 11268
Ohne 11269
ter-@@ 11270
Esszimmer 11271
afrikanischen 11272
zunehmen 11273
vast 11274
Zurich 11275
tels 11276
Bag@@ 11277
reform@@ 11278
utt@@ 11279
platten 11280
c-@@ 11281
belie@@ 11282
Lav@@ 11283
Führ@@ 11284
Investoren 11285
ausgewählt 11286
kas 11287
lässi@@ 11288
mixed 11289
empfohlen 11290
vorbereitet 11291
Woh@@ 11292
Außenminister 11293
zzo 11294
Suiten 11295
stag@@ 11296
Vir@@ 11297
Anwendungs@@ 11298
resolve 11299
Marktes 11300
belast@@ 11301
3000 11302
emphasi@@ 11303
Solar 11304
Labor@@ 11305
Playa 11306
eg 11307
geschwindigkeit 11308
Based 11309
graph 11310
Nice 11311
überprüft 11312
Dep@@ 11313
lator 11314
wooden 11315
involve 11316
aktualisiert 11317
Ess@@ 11318
Nam@@ 11319
fleet 11320
impor@@ 11321
enge 11322
pursue 11323
teilung 11324
Further 11325
excessive 11326
solo 11327
Autobahn 11328
Part 11329
mas@@ 11330
Jugend 11331
GF@@ 11332
atom@@ 11333
angle 11334
reiter@@ 11335
quar@@ 11336
jud@@ 11337
personally 11338
angebot 11339
differ@@ 11340
Natural 11341
ika 11342
aboli@@ 11343
measuring 11344
blog 11345
constructive 11346
tile 11347
roll@@ 11348
sever@@ 11349
begins 11350
unmöglich 11351
glaub@@ 11352
Gewährleistung 11353
composition 11354
justified 11355
ati 11356
Europol 11357
dered 11358
dargestellt 11359
Angel@@ 11360
individuell 11361
Florence 11362
bisherigen 11363
Given 11364
falsch 11365
PA@@ 11366
Lehrer 11367
xx 11368
individuellen 11369
Gan@@ 11370
spä@@ 11371
gewicht 11372
mature 11373
combating 11374
Software@@ 11375
secret 11376
Wünsche 11377
abilities 11378
Rules 11379
nutzt 11380
Prinzipien 11381
TV@@ 11382
ial 11383
professionals 11384
investieren 11385
Bezeichnung 11386
zeichnungen 11387
450@@ 11388
ollen 11389
vin@@ 11390
lev@@ 11391
Source 11392
Structural 11393
AIDS 11394
sle@@ 11395
DH@@ 11396
laser 11397
cker@@ 11398
unabhängige 11399
constitute 11400
Schiff@@ 11401
chinesische 11402
Beratungen 11403
Vorstellung 11404
geschäft 11405
Bereits 11406
yed 11407
Staates 11408
inclusion 11409
jahr@@ 11410
Bestimmung 11411
domain 11412
Herr@@ 11413
ampe 11414
maintaining 11415
Wandel 11416
Working 11417
sorgfältig 11418
hochwertige 11419
vorzulegen 11420
enterprise 11421
survey 11422
ständen 11423
Gesetzgebung 11424
trial 11425
umfassen 11426
Federation 11427
klar@@ 11428
strict 11429
Organe 11430
Rab@@ 11431
Fassung 11432
roo@@ 11433
sisch 11434
Strukturfonds 11435
rö@@ 11436
frem@@ 11437
gere 11438
Stefan 11439
Feu@@ 11440
DP 11441
mente 11442
planet 11443
pot@@ 11444
lis 11445
liegenden 11446
rejected 11447
stem 11448
ature 11449
trägen 11450
suites 11451
Will 11452
Satelliten@@ 11453
Belgian 11454
nutz@@ 11455
proud 11456
Tem@@ 11457
Kyoto 11458
beigetragen 11459
spe@@ 11460
sischer 11461
Garten@@ 11462
Sto@@ 11463
e.com 11464
employed 11465
ffe 11466
erzeu@@ 11467
worfen 11468
asts 11469
GA@@ 11470
Rin@@ 11471
empfangen 11472
susp@@ 11473
Work@@ 11474
dauer 11475
Monetary 11476
ffs 11477
stent 11478
Yo@@ 11479
Drachen 11480
austausch 11481
ects 11482
jo 11483
SN@@ 11484
ras 11485
pump 11486
Lar@@ 11487
Versand@@ 11488
ausgegeben 11489
Speed 11490
Drive 11491
{ 11492
acquired 11493
richtung 11494
yard 11495
Days 11496
welchem 11497
kit 11498
thir@@ 11499
Glas 11500
empf@@ 11501
ebung 11502
Agrarpolitik 11503
licherweise 11504
automotive 11505
tab@@ 11506
theater 11507
kostet 11508
emo@@ 11509
Wetterstation 11510
Will@@ 11511
power@@ 11512
täglichen 11513
Planck 11514
kür@@ 11515
kosten@@ 11516
rie 11517
drin@@ 11518
Buchen 11519
bergen 11520
nd 11521
Full 11522
towns 11523
adapted 11524
rol 11525
beings 11526
Litauen 11527
struggle 11528
grade 11529
three-@@ 11530
coordinated 11531
verstanden 11532
Wirtschaftswachstum 11533
clock 11534
doppel@@ 11535
eme 11536
ł@@ 11537
1979 11538
Beste 11539
explains 11540
ec 11541
Reser@@ 11542
Johann 11543
Metall@@ 11544
unds 11545
cookies 11546
originally 11547
Firefox 11548
fähige 11549
stische 11550
ae 11551
coo@@ 11552
encouraging 11553
upgrade 11554
Wall@@ 11555
Dynam@@ 11556
Korruption 11557
Start@@ 11558
Maß@@ 11559
Sied@@ 11560
Netzwerk@@ 11561
notwendige 11562
shore 11563
thousand 11564
wunderschönen 11565
Exp@@ 11566
wechsel 11567
Cla@@ 11568
richti@@ 11569
1970 11570
ç@@ 11571
marine 11572
} 11573
still@@ 11574
fünf@@ 11575
steuern 11576
demanding 11577
1.0@@ 11578
Sky@@ 11579
gert 11580
Pati@@ 11581
gesam@@ 11582
entscheidender 11583
transportation 11584
keyword 11585
rom 11586
elli 11587
system@@ 11588
deep@@ 11589
IE 11590
Ambiente 11591
Ausstellungen 11592
klassi@@ 11593
schemes 11594
hundreds 11595
Automobil@@ 11596
Sustainable 11597
wachsenden 11598
museums 11599
maps 11600
decision-making 11601
tter 11602
ć 11603
fertig 11604
A3@@ 11605
angesehen 11606
bekämpfen 11607
Umweltschutz 11608
integr@@ 11609
Kirchen 11610
revi@@ 11611
Sing@@ 11612
Keddy 11613
übersch@@ 11614
Gö@@ 11615
halt@@ 11616
seri@@ 11617
bedeuten 11618
zur@@ 11619
zeichnete 11620
Erklärungen 11621
crimes 11622
1982 11623
high@@ 11624
Audio 11625
kunft 11626
verti@@ 11627
dle 11628
fly 11629
deine 11630
fix 11631
gab@@ 11632
fähi@@ 11633
seeing 11634
vessels 11635
California 11636
List 11637
Jer@@ 11638
pack 11639
Seele 11640
selling 11641
remind 11642
Fan@@ 11643
besu@@ 11644
fahrer 11645
blocks 11646
etta 11647
meets 11648
tourists 11649
rightly 11650
öffent@@ 11651
mess@@ 11652
oner 11653
persecution 11654
aktion 11655
Gender 11656
ähr@@ 11657
recognise 11658
kostenlosen 11659
xen 11660
equi@@ 11661
Docum@@ 11662
Praktiken 11663
Forscher 11664
klassischen 11665
Waren@@ 11666
Webseiten 11667
sichergestellt 11668
zeichnen 11669
Glo@@ 11670
aster 11671
Opera 11672
Perspektive 11673
Pläne 11674
Peace 11675
vergleich@@ 11676
Verfassungs@@ 11677
105 11678
Rent@@ 11679
promo@@ 11680
Meiner 11681
1983 11682
erle@@ 11683
elf 11684
olog@@ 11685
automation 11686
Helsinki 11687
ample 11688
Küsten@@ 11689
smart 11690
Fitness 11691
driven 11692
wissenschaften 11693
angeht 11694
stör@@ 11695
speichern 11696
ausgestattete 11697
Balkans 11698
involves 11699
antes 11700
gements 11701
age@@ 11702
mögen 11703
Dokumentation 11704
ahn 11705
plu@@ 11706
bian 11707
oned 11708
chtigen 11709
Budget 11710
Virtual 11711
ept 11712
Son 11713
toward 11714
colleague 11715
errichtet 11716
doc@@ 11717
everyday 11718
jointly 11719
Chief 11720
stylish 11721
unch 11722
Touristen 11723
contributed 11724
Amp@@ 11725
wirtschaftlich 11726
departure 11727
fach 11728
aul@@ 11729
transpar@@ 11730
baby 11731
genannte 11732
Production 11733
Green@@ 11734
Stau@@ 11735
controller 11736
Fir@@ 11737
ßte 11738
rob@@ 11739
HTML 11740
Fass@@ 11741
Harmonisierung 11742
naturally 11743
strebt 11744
Reit@@ 11745
klasse 11746
Bun@@ 11747
sending 11748
Mechan@@ 11749
beziehungen 11750
Menü 11751
protocol 11752
entwick@@ 11753
ae-201@@ 11754
49@@ 11755
clubs 11756
alty 11757
Meas@@ 11758
gerichtet 11759
beraten 11760
Sus@@ 11761
zel@@ 11762
eva 11763
Oc@@ 11764
entschlossen 11765
lauf 11766
Titan 11767
illustr@@ 11768
Karlsruhe 11769
Konzert 11770
absence 11771
Anlass 11772
Ok@@ 11773
geplanten 11774
maxim@@ 11775
NI@@ 11776
Emp@@ 11777
Kabel@@ 11778
cir@@ 11779
bruch 11780
meant 11781
Rhein@@ 11782
Handels 11783
selten 11784
räum@@ 11785
aker 11786
Ideal 11787
Pflicht 11788
functionality 11789
Nature 11790
zü@@ 11791
britische 11792
europa@@ 11793
lautet 11794
Cel@@ 11795
ea 11796
Kit 11797
moder@@ 11798
unterstütze 11799
RE 11800
besonderer 11801
ened 11802
machten 11803
Steigerung 11804
Kreuz@@ 11805
appointment 11806
bek@@ 11807
cin@@ 11808
usual 11809
undertaken 11810
liberalisation 11811
ici@@ 11812
Einen 11813
Saison 11814
recording 11815
sprech@@ 11816
equivalent 11817
Kla@@ 11818
Beschlüsse 11819
ordered 11820
iron 11821
EPÜ 11822
decline 11823
bereitet 11824
dead 11825
teils 11826
voluntary 11827
brü@@ 11828
unge@@ 11829
Direktor 11830
tend@@ 11831
keys 11832
EEC 11833
gelöscht 11834
Free@@ 11835
Kart@@ 11836
³ 11837
altern@@ 11838
tionary 11839
Wohlstand 11840
urge 11841
produces 11842
bank@@ 11843
ly@@ 11844
ned 11845
ria 11846
sicherung 11847
oning 11848
pools 11849
blei@@ 11850
externen 11851
Auge 11852
Rob@@ 11853
Domini@@ 11854
guided 11855
acher 11856
Letzte 11857
Lizenz@@ 11858
actor 11859
Rus@@ 11860
Phar@@ 11861
Florenz 11862
Klaus 11863
bares 11864
hast 11865
vorstellen 11866
chairs 11867
ymp@@ 11868
panoramic 11869
CAP 11870
beln 11871
Zivil@@ 11872
individu@@ 11873
Juli@@ 11874
Canon 11875
beobachten 11876
Saint-@@ 11877
ultimately 11878
aks 11879
stammen 11880
setz@@ 11881
ratio 11882
altet 11883
hundred 11884
entspann@@ 11885
pap@@ 11886
Village 11887
Dol@@ 11888
pose 11889
101 11890
Sri 11891
serving 11892
representation 11893
Fried@@ 11894
diert 11895
extra@@ 11896
Betrieb@@ 11897
Istanbul 11898
personnel 11899
allgem@@ 11900
2021 11901
Tal 11902
18.@@ 11903
ado@@ 11904
sterne 11905
SY@@ 11906
ø@@ 11907
gap 11908
Ry@@ 11909
Serbien 11910
Marokko 11911
stressed 11912
sees 11913
whilst 11914
ali 11915
19.@@ 11916
Hoff@@ 11917
schicken 11918
Glei@@ 11919
urt 11920
ecting 11921
geführte 11922
übermittelt 11923
enne 11924
p.@@ 11925
secre@@ 11926
trafficking 11927
sichts@@ 11928
unverzüglich 11929
loan 11930
Information@@ 11931
ía 11932
counts 11933
sektors 11934
praktische 11935
Drei 11936
fail 11937
resource 11938
bis@@ 11939
Prag 11940
mitglieder 11941
receiving 11942
Gaza 11943
treaty 11944
Lufthansa 11945
wahren 11946
Orchestra 11947
räu@@ 11948
Deutschlands 11949
fassung 11950
problemati@@ 11951
ernst 11952
Slowenien 11953
SC@@ 11954
Visit 11955
Lor@@ 11956
Tsch@@ 11957
zulassen 11958
19th 11959
.09.@@ 11960
Eur@@ 11961
rose 11962
passiert 11963
Wes@@ 11964
Kranken@@ 11965
79@@ 11966
ple 11967
Fei@@ 11968
Saf@@ 11969
Gleichgewicht 11970
procurement 11971
cross-@@ 11972
Sty@@ 11973
ordnet 11974
eman@@ 11975
fügen 11976
classes 11977
LI@@ 11978
Fortsch@@ 11979
hop@@ 11980
Haf@@ 11981
lunch 11982
barbecue 11983
ners 11984
philosophy 11985
gained 11986
Übertragung 11987
fa 11988
Erhaltung 11989
mid@@ 11990
B.@@ 11991
Jung@@ 11992
Develop@@ 11993
Quar@@ 11994
rich@@ 11995
Beseitigung 11996
suggest 11997
clari@@ 11998
ar-@@ 11999
bewus@@ 12000
Kohlen@@ 12001
rely 12002
oldest 12003
strukturen 12004
20th 12005
holder 12006
News@@ 12007
substance 12008
Bedrohung 12009
GP@@ 12010
song 12011
Visi@@ 12012
Mail 12013
sien 12014
einigt 12015
lier 12016
Pact 12017
Nicht-@@ 12018
klaren 12019
rank@@ 12020
permitted 12021
gehende 12022
well-known 12023
bling 12024
echn@@ 12025
ansehen 12026
leichter 12027
mern 12028
wies 12029
liz@@ 12030
Frequ@@ 12031
langfristigen 12032
ergibt 12033
Gaz@@ 12034
gelassen 12035
ore@@ 12036
prozesse 12037
soul 12038
Pension 12039
azz@@ 12040
Az@@ 12041
dence 12042
Export 12043
ranging 12044
Viel@@ 12045
Currently 12046
Kaffe@@ 12047
offizielle 12048
bezahlen 12049
Dritte 12050
reis@@ 12051
entspannen 12052
Peru 12053
netz 12054
Geschäftsordnung 12055
severe 12056
air-conditioning 12057
combines 12058
Mutter@@ 12059
Glück@@ 12060
ando 12061
intelligent 12062
innov@@ 12063
gardens 12064
Division 12065
Set@@ 12066
Wirksamkeit 12067
Tatsächlich 12068
Fon@@ 12069
mittleren 12070
offline 12071
überra@@ 12072
etzt 12073
sogenannten 12074
anschließend 12075
derer 12076
ardi@@ 12077
itali@@ 12078
Hardware 12079
indoor 12080
32-@@ 12081
Rezeption 12082
Satz 12083
Hit@@ 12084
Cock@@ 12085
Piazza 12086
Intern@@ 12087
adapt 12088
ison 12089
verteilt 12090
familiar 12091
valu@@ 12092
Airlines 12093
Reduzierung 12094
beschäf@@ 12095
Kampagne 12096
ride 12097
geeignete 12098
risi@@ 12099
Registrierung 12100
Managing 12101
enabling 12102
obstacles 12103
Atlan@@ 12104
dings 12105
Konto 12106
ry@@ 12107
Strah@@ 12108
innovativen 12109
kombiniert 12110
ink@@ 12111
Call 12112
anstatt 12113
rank 12114
Zeigerringe 12115
gement 12116
Pointerring 12117
Prozesses 12118
toler@@ 12119
designs 12120
Ach@@ 12121
Fro@@ 12122
Bremen 12123
Versorgung 12124
Spezial@@ 12125
scheduled 12126
alling 12127
cuts 12128
respected 12129
considerably 12130
-based 12131
küh@@ 12132
Akteure 12133
Nein 12134
A1 12135
erkennt 12136
fat 12137
europe-camping-guide.com 12138
advoc@@ 12139
dation 12140
aufgebaut 12141
fuels 12142
annehmen 12143
PER@@ 12144
Fres@@ 12145
Dienst@@ 12146
Mode 12147
Detail 12148
bits 12149
reini@@ 12150
Überzeugung 12151
Etik@@ 12152
manufacture 12153
Young 12154
carrying 12155
subsequent 12156
Zahlung 12157
trotzdem 12158
Instead 12159
240 12160
notably 12161
Argentina 12162
LCD 12163
Sales 12164
Summer 12165
tured 12166
ough 12167
Francisco 12168
Menschheit 12169
Medizin 12170
mathemati@@ 12171
freut 12172
vorgeschlagene 12173
weib@@ 12174
Email 12175
Optim@@ 12176
20.@@ 12177
Cav@@ 12178
Result 12179
spectacular 12180
atively 12181
masturbation 12182
Zug 12183
50-@@ 12184
famili@@ 12185
sw@@ 12186
extrac@@ 12187
correctly 12188
bir@@ 12189
Zeitung 12190
Using 12191
änder 12192
-und 12193
veran@@ 12194
subsidies 12195
Weg@@ 12196
H. 12197
respectively 12198
reflected 12199
diger 12200
ziel 12201
votes 12202
reaction 12203
forests 12204
composed 12205
songs 12206
senken 12207
completion 12208
periods 12209
hü@@ 12210
Erst@@ 12211
defend 12212
geber 12213
Einkommen 12214
accurate 12215
Völker@@ 12216
kräfte 12217
Binnen@@ 12218
Wall 12219
realistic 12220
reliability 12221
grundsätzlich 12222
festgelegten 12223
promises 12224
05@@ 12225
Einwohner 12226
Beijing 12227
128 12228
alisten 12229
Administration 12230
cheapest 12231
üb@@ 12232
achtet 12233
politi@@ 12234
persi@@ 12235
PT@@ 12236
computers 12237
füh@@ 12238
Ausrüstung 12239
solange 12240
boats 12241
bü@@ 12242
Problems 12243
individually 12244
chungen 12245
g. 12246
klebend 12247
nochmals 12248
coordin@@ 12249
äh@@ 12250
becken 12251
organisieren 12252
root 12253
José 12254
Mangel 12255
diver@@ 12256
eingestellt 12257
tau@@ 12258
vorher 12259
Work 12260
Mw@@ 12261
occup@@ 12262
Ameri@@ 12263
TER@@ 12264
maß@@ 12265
Schmi@@ 12266
cas 12267
schluss@@ 12268
ori 12269
MYLAR 12270
Vorschlags 12271
Erdgeschoss 12272
pilot 12273
non-adhesive 12274
ION@@ 12275
arrive 12276
Lager 12277
MYLAR-Airbrush-Tattoo-Schablonen 12278
ökonomischen 12279
vil@@ 12280
.org 12281
centuries 12282
Regierungschefs 12283
Wind 12284
Ungleich@@ 12285
einheit 12286
ph 12287
hart 12288
ließen 12289
impression 12290
gebo@@ 12291
pt 12292
imperi@@ 12293
gestaltung 12294
Meer@@ 12295
hear@@ 12296
expanded 12297
Art. 12298
zeigte 12299
strasse 12300
kra@@ 12301
Jap@@ 12302
änder@@ 12303
alistischen 12304
umfangreiche 12305
Fair 12306
Verteilung 12307
verweist 12308
legitimate 12309
3.5 12310
Aff@@ 12311
ret@@ 12312
filling 12313
percentage 12314
dol@@ 12315
Lateinamerika 12316
significance 12317
irs 12318
destroyed 12319
nungs@@ 12320
humanitären 12321
R. 12322
verleihen 12323
audience 12324
divi@@ 12325
Christen 12326
Text@@ 12327
HIV 12328
Wörterbuch 12329
alb@@ 12330
Stabili@@ 12331
ziel@@ 12332
streng@@ 12333
bemüht 12334
eted 12335
resul@@ 12336
unterliegen 12337
abuse 12338
230 12339
Häuser 12340
geprägt 12341
süd@@ 12342
ziger 12343
kompet@@ 12344
discussing 12345
fan 12346
fällig 12347
Anwender 12348
lessons 12349
ersetzen 12350
gos 12351
strengthened 12352
Arbeitsplatz 12353
hole 12354
grenzen 12355
VI 12356
pak@@ 12357
Burg 12358
Funk@@ 12359
xis 12360
daughter 12361
pun@@ 12362
Cala 12363
horn 12364
Schad@@ 12365
Jacques 12366
Georgi@@ 12367
engines 12368
stab@@ 12369
Kandidaten 12370
ordinary 12371
aket 12372
Southern 12373
Competition 12374
aviation 12375
Lernen 12376
1-2 12377
selben 12378
Ven@@ 12379
weis@@ 12380
homepage 12381
aussch@@ 12382
gehörigen 12383
fulfil 12384
.0.@@ 12385
Territ@@ 12386
0er 12387
Russi@@ 12388
Veränderung 12389
großem 12390
stores 12391
Versicherungs@@ 12392
beginn@@ 12393
E. 12394
criticism 12395
theatre 12396
komplette 12397
Yu@@ 12398
prosperity 12399
2.2 12400
revision 12401
assume 12402
autom@@ 12403
Erforder@@ 12404
este 12405
viertel 12406
ules 12407
Juden 12408
excluded 12409
blau 12410
konstruk@@ 12411
highlights 12412
Planeten 12413
pel@@ 12414
Tat@@ 12415
atur 12416
kus 12417
alem 12418
schte 12419
Institu@@ 12420
berechti@@ 12421
sement 12422
geliefert 12423
tisches 12424
BB@@ 12425
pression 12426
Dritt@@ 12427
Vertrieb 12428
Transfer 12429
thesis 12430
einfach@@ 12431
tief 12432
robust 12433
foo@@ 12434
permission 12435
78@@ 12436
Vorjahr 12437
Stability 12438
erkannt 12439
Spitze 12440
author@@ 12441
duration 12442
Tabelle 12443
Ersatz@@ 12444
app 12445
Technologies 12446
weshalb 12447
Übergang 12448
Archiv 12449
CK 12450
kan 12451
nei@@ 12452
Für@@ 12453
agne 12454
bequ@@ 12455
gering 12456
EWG 12457
Gespräch 12458
Her 12459
AND 12460
bedeutende 12461
Andalu@@ 12462
Zw@@ 12463
dition 12464
Sieg 12465
Kopf@@ 12466
Ausrichtung 12467
Aro@@ 12468
Einer 12469
Nav@@ 12470
integrierte 12471
verantwortungs@@ 12472
morali@@ 12473
Weight 12474
Hohen 12475
banken 12476
ami 12477
reflects 12478
Pir@@ 12479
lädt 12480
whatever 12481
Milan 12482
voc@@ 12483
Num@@ 12484
entdeckt 12485
Ausführungen 12486
Polizei@@ 12487
gewidmet 12488
Hamas 12489
army 12490
Aid 12491
authorised 12492
INTER@@ 12493
ly-@@ 12494
Sli@@ 12495
HA@@ 12496
Sn@@ 12497
ECO@@ 12498
Betreiber 12499
Rit@@ 12500
welle 12501
verur@@ 12502
fangen 12503
hill 12504
Consumer 12505
aufs 12506
1978 12507
essor 12508
ICE 12509
effektiv 12510
exposure 12511
attached 12512
flat-screen 12513
sections 12514
ble@@ 12515
001 12516
messe 12517
Vertrau@@ 12518
Gru@@ 12519
funktion 12520
Arena 12521
Sicherung 12522
cosy 12523
interessant 12524
Geschlecht 12525
Stro@@ 12526
Bedien@@ 12527
applying 12528
Word 12529
variable 12530
Att@@ 12531
teachers 12532
ons@@ 12533
Ernst 12534
produzieren 12535
verhalten 12536
mini 12537
Kü@@ 12538
detail@@ 12539
orie 12540
arrived 12541
wissenschaft@@ 12542
Est@@ 12543
Hav@@ 12544
Dictionary 12545
ulating 12546
wollten 12547
lah 12548
italienische 12549
BAS@@ 12550
chtete 12551
stätigkeit 12552
campsite 12553
cies 12554
Fli@@ 12555
Wiener 12556
Lizenz 12557
eingereicht 12558
approaches 12559
antly 12560
subjects 12561
lok@@ 12562
Art@@ 12563
entfernen 12564
nik 12565
terminal 12566
Armee 12567
Dim@@ 12568
bende 12569
komfortable 12570
Schlag@@ 12571
branche 12572
venture 12573
associations 12574
temperatures 12575
Kriegs@@ 12576
SI 12577
Bearbeitung 12578
ín 12579
sehe 12580
spoke 12581
SC 12582
1200 12583
letztlich 12584
regel@@ 12585
Fax 12586
depend 12587
Hat 12588
setzte 12589
magnificent 12590
aufnahme 12591
Weiterentwicklung 12592
Environmental 12593
rischen 12594
worse 12595
Å 12596
Civil 12597
Eurozone 12598
vollem 12599
Sah@@ 12600
ached 12601
appreciate 12602
Ref 12603
gemeinschaftlichen 12604
1981 12605
Schiff 12606
revised 12607
Arch@@ 12608
Jews 12609
Kontin@@ 12610
Manufacturer 12611
minority 12612
gei@@ 12613
alog 12614
7-0@@ 12615
Konsultation 12616
aire 12617
Mobil@@ 12618
Badewanne 12619
oom 12620
Bavaria 12621
Check 12622
Ani@@ 12623
MIN@@ 12624
TA@@ 12625
shot 12626
zigen 12627
Distribution 12628
Om@@ 12629
liberal 12630
seu@@ 12631
burger 12632
Gemeinden 12633
werks 12634
grund@@ 12635
regionaler 12636
Positionen 12637
societies 12638
gnisse 12639
vary 12640
repair 12641
opposed 12642
Nation@@ 12643
KB@@ 12644
baut 12645
Rub@@ 12646
sparen 12647
generi@@ 12648
Modus 12649
intends 12650
amateur 12651
stimmt 12652
autumn 12653
gestiegen 12654
SAN@@ 12655
IA@@ 12656
Drittel 12657
External 12658
gezwungen 12659
clean@@ 12660
Freuen 12661
cultures 12662
eph@@ 12663
expand 12664
Neg@@ 12665
Zent@@ 12666
contrac@@ 12667
Stahl 12668
läu@@ 12669
winner 12670
stolz 12671
conversion 12672
unterscheiden 12673
deci@@ 12674
Boot 12675
erlassen 12676
findings 12677
250@@ 12678
Islam@@ 12679
folder 12680
ow@@ 12681
mung 12682
iso@@ 12683
vention 12684
Entwickler 12685
märkten 12686
ingredients 12687
entation 12688
hop 12689
beru@@ 12690
punk@@ 12691
revolution@@ 12692
Kel@@ 12693
CP 12694
retail 12695
196@@ 12696
Vie@@ 12697
genaue 12698
Economy 12699
ris 12700
mussten 12701
battle 12702
plenty 12703
digit@@ 12704
grünen 12705
api@@ 12706
traditions 12707
Marco 12708
günsti@@ 12709
Prote@@ 12710
Bah@@ 12711
Wird 12712
hang 12713
confirmation 12714
bringung 12715
pain 12716
string 12717
Holland 12718
reibungen 12719
missions 12720
Hör@@ 12721
Intel 12722
multin@@ 12723
ingu@@ 12724
pler 12725
vel 12726
steller 12727
sition 12728
Errichtung 12729
3rd 12730
It@@ 12731
Ford 12732
Intelli@@ 12733
Kis@@ 12734
Mountain 12735
Große 12736
rechnen 12737
sä@@ 12738
tto 12739
69@@ 12740
vi 12741
Ansprüche 12742
Tests 12743
vis 12744
perf@@ 12745
schweren 12746
Universitäten 12747
happening 12748
digte 12749
ée 12750
vielfäl@@ 12751
interview 12752
Tä@@ 12753
Abfall@@ 12754
checks 12755
entliche 12756
ghter 12757
roof 12758
öh@@ 12759
Or 12760
fahrzeuge 12761
ceremony 12762
lager 12763
ML@@ 12764
cum@@ 12765
CAD 12766
hohem 12767
6.50 12768
weak 12769
Sav@@ 12770
rung 12771
Gir@@ 12772
dustrie 12773
skiing 12774
presenting 12775
wirkung 12776
ruhig 12777
DES@@ 12778
Smart 12779
ärer 12780
Dest@@ 12781
zellen 12782
jener 12783
Fraktionen 12784
illegalen 12785
electro@@ 12786
alisierte 12787
datum 12788
ees 12789
Tam@@ 12790
Aluminium 12791
Pack 12792
gangenen 12793
public@@ 12794
bemühen 12795
Growth 12796
oul@@ 12797
Stimmen 12798
untersuchen 12799
Auth@@ 12800
chat 12801
schlecht 12802
ile 12803
Entspannung 12804
2-4 12805
grenze 12806
langsam 12807
maximal 12808
amended 12809
gelegte 12810
NGOs 12811
stove 12812
satisfactory 12813
Personal@@ 12814
NAT@@ 12815
Erinnerung 12816
techni@@ 12817
Charta 12818
Kompromis@@ 12819
pay@@ 12820
Erste 12821
Latvia 12822
consulting 12823
Premium 12824
Anmel@@ 12825
SR@@ 12826
Venedig 12827
Zuge 12828
Stärke 12829
akes 12830
Ausarbeitung 12831
sinnvoll 12832
adjustment 12833
ecke 12834
schäd@@ 12835
Kongres@@ 12836
olive 12837
gigen 12838
stands@@ 12839
kreis 12840
bestimmungen 12841
supervision 12842
08@@ 12843
Zentralbank 12844
manu@@ 12845
Glück 12846
Verletzung 12847
fehlt 12848
hardcore 12849
collect 12850
azi@@ 12851
Server@@ 12852
learned 12853
Ob 12854
gegebenenfalls 12855
Politiken 12856
Results 12857
hidden 12858
walt 12859
lehr@@ 12860
faces 12861
750 12862
exact 12863
rom@@ 12864
gnissen 12865
Anzeigen 12866
victory 12867
belong 12868
delicious 12869
exhibitions 12870
weltweite 12871
Transpor@@ 12872
dos 12873
Metro 12874
angebote 12875
Merk@@ 12876
Cant@@ 12877
Kapital 12878
ket 12879
berichtet 12880
dev@@ 12881
Universal 12882
langfristig 12883
fak@@ 12884
dis 12885
sichti@@ 12886
false 12887
cooperate 12888
Gil@@ 12889
tter@@ 12890
bran@@ 12891
Estonia 12892
probleme 12893
straight 12894
2,0 12895
Twitter 12896
drop@@ 12897
possibly 12898
methoden 12899
catalog 12900
legally 12901
lim@@ 12902
bonus 12903
gn 12904
LL@@ 12905
Urheber@@ 12906
halts 12907
temp@@ 12908
2.1 12909
schla@@ 12910
Fab@@ 12911
Internetzugang 12912
N-@@ 12913
EPO 12914
Utrecht 12915
kilometres 12916
21@@ 12917
Benutzer@@ 12918
inbegriffen 12919
ausgezeichneten 12920
Nahrungsmittel@@ 12921
varied 12922
Geräten 12923
servers 12924
medizinische 12925
combine 12926
Wit@@ 12927
spiegelt 12928
focuses 12929
schließ@@ 12930
Route 12931
hinaus@@ 12932
Minister@@ 12933
enburg 12934
Color 12935
killed 12936
revenue 12937
forthcoming 12938
tha 12939
Block@@ 12940
erzeugen 12941
Jur@@ 12942
tobacco 12943
yn 12944
CB@@ 12945
Gü@@ 12946
POR@@ 12947
pper 12948
arts 12949
Mitglieds@@ 12950
Skigebiet 12951
smooth 12952
installations 12953
der-@@ 12954
Kriminalität 12955
wheel 12956
main@@ 12957
Tanz@@ 12958
immer@@ 12959
shift 12960
asti@@ 12961
Maj@@ 12962
IX 12963
slopes 12964
Sierra 12965
iti 12966
vali@@ 12967
sounds 12968
Arab@@ 12969
Brücke 12970
verboten 12971
delighted 12972
execution 12973
ARD 12974
raising 12975
ceiling 12976
ßer 12977
Hindernisse 12978
Schau@@ 12979
zentr@@ 12980
nec@@ 12981
inclusive 12982
chapter 12983
PP 12984
SL 12985
Proz@@ 12986
assem@@ 12987
Farm 12988
operative 12989
arrangement 12990
ünd@@ 12991
Vin@@ 12992
Minderheiten 12993
W. 12994
Sco@@ 12995
decade 12996
Rennen 12997
berichten 12998
ž@@ 12999
labor 13000
jek@@ 13001
ruft 13002
Frank@@ 13003
genügend 13004
Klar@@ 13005
orienti@@ 13006
Stufe 13007
trol@@ 13008
ologisch 13009
Fehler@@ 13010
isse 13011
foto@@ 13012
constitutional 13013
inci@@ 13014
compli@@ 13015
Pacific 13016
Dritten 13017
belongs 13018
Gall@@ 13019
Ergebnissen 13020
stret@@ 13021
bab@@ 13022
script 13023
chemicals 13024
s.com 13025
Large 13026
knapp 13027
Info 13028
Markus 13029
komme 13030
Relations 13031
wiederholt 13032
XL 13033
dateien 13034
Web-@@ 13035
angegebenen 13036
inspired 13037
armed 13038
fuhr 13039
Dav@@ 13040
Fahrzeug 13041
Gerichts@@ 13042
Grundlagen 13043
CAS@@ 13044
Hubert 13045
Parking 13046
DER 13047
ve-@@ 13048
kun@@ 13049
hairdryer 13050
Laut 13051
dres@@ 13052
bekräftigt 13053
einbezogen 13054
arise 13055
dishwasher 13056
3D-@@ 13057
federal 13058
non@@ 13059
ement@@ 13060
greatly 13061
wort 13062
verwal@@ 13063
Miss@@ 13064
program@@ 13065
Geheim@@ 13066
Rule 13067
didn 13068
illu@@ 13069
konfrontiert 13070
4-0@@ 13071
meister 13072
var 13073
ats@@ 13074
eken 13075
kräf@@ 13076
organi@@ 13077
disabled 13078
verw@@ 13079
Künstler@@ 13080
Ron@@ 13081
jährlichen 13082
betrieb 13083
Heidelberg 13084
Editor 13085
öffentlicher 13086
aktivitäten 13087
Jahrzehnten 13088
Fernsehen 13089
lus@@ 13090
hierfür 13091
termin@@ 13092
Kamin 13093
Studium 13094
milf 13095
folge 13096
CDs 13097
vierte 13098
Ath@@ 13099
terin 13100
rechtlich 13101
Ausbildungs@@ 13102
normalen 13103
Moskau 13104
tax@@ 13105
somewhat 13106
versammlung 13107
Europa-@@ 13108
eingehalten 13109
neusten 13110
auftreten 13111
GH@@ 13112
Very 13113
Binnenmarktes 13114
Albert 13115
Finanzkrise 13116
ENT 13117
theore@@ 13118
1968 13119
gä@@ 13120
believes 13121
Spitzen@@ 13122
Bestell@@ 13123
tika 13124
ess-@@ 13125
Amts@@ 13126
zweifellos 13127
appro@@ 13128
öffentlich 13129
Illu@@ 13130
Cross 13131
wai@@ 13132
Publikum 13133
intend 13134
feet 13135
acceptance 13136
erfordern 13137
gation 13138
denti@@ 13139
discount 13140
sammeln 13141
mand@@ 13142
schutzes 13143
jegliche 13144
tories 13145
KIT 13146
Max@@ 13147
Eisen@@ 13148
zurückzuführen 13149
generations 13150
tered 13151
air-conditioned 13152
hearing 13153
Paar 13154
Strände 13155
maximale 13156
sphere 13157
stant 13158
depth 13159
Esp@@ 13160
ô@@ 13161
Verfahrens 13162
verwendeten 13163
eriert 13164
Wald 13165
brands 13166
cab@@ 13167
Play 13168
hostels 13169
neighbouring 13170
sand 13171
ware@@ 13172
Jugendlichen 13173
About 13174
Without 13175
i-@@ 13176
Pfei@@ 13177
stur@@ 13178
schnitt 13179
unterschiedlich 13180
bahn@@ 13181
beschrän@@ 13182
Distri@@ 13183
3-4 13184
Inserate 13185
married 13186
onie 13187
Beit@@ 13188
Geschrieben 13189
Finnish 13190
argument 13191
trieb 13192
Benutzung 13193
Boh@@ 13194
waffen 13195
irre@@ 13196
acqu@@ 13197
Behörde 13198
überzeugen 13199
Team@@ 13200
Bergen 13201
freundlichen 13202
Sä@@ 13203
Sz@@ 13204
Tube 13205
Jahr@@ 13206
geplante 13207
Spra@@ 13208
farms 13209
restore 13210
1.3 13211
las 13212
informationen 13213
Clu@@ 13214
spezialisiert 13215
Präsentation 13216
endung 13217
Besorgnis 13218
seats 13219
placing 13220
debates 13221
MHz 13222
Wiederauf@@ 13223
gut@@ 13224
geschlossenen 13225
Kern 13226
wski 13227
candidates 13228
enthaltenen 13229
soil 13230
direc@@ 13231
Several 13232
collabor@@ 13233
impose 13234
erstes 13235
Tourism 13236
Christoph 13237
gestärkt 13238
altung 13239
Leh@@ 13240
gesellschaftlichen 13241
komfortabel 13242
io 13243
Tag@@ 13244
Verlauf 13245
moderni@@ 13246
Unterhaltung 13247
klein 13248
normalerweise 13249
Innenstadt 13250
476@@ 13251
Terror@@ 13252
agen@@ 13253
onds 13254
franzö@@ 13255
einig 13256
verringert 13257
poin@@ 13258
citizen 13259
Zwei 13260
dness 13261
457@@ 13262
grei@@ 13263
negotiating 13264
Haar@@ 13265
112 13266
mur@@ 13267
Messe@@ 13268
wage 13269
careful 13270
ten-@@ 13271
körper@@ 13272
ento 13273
passt 13274
synchron@@ 13275
etti 13276
einzusetzen 13277
classical 13278
Bios-Chips 13279
prop@@ 13280
1976 13281
Gast 13282
Richter 13283
Who 13284
einheitliche 13285
spoken 13286
bird 13287
champi@@ 13288
errors 13289
trips 13290
constructed 13291
berechnet 13292
Feld@@ 13293
records 13294
arities 13295
Rotterdam 13296
haber 13297
militärischen 13298
sons 13299
score 13300
obliged 13301
L. 13302
sende 13303
dring@@ 13304
Generationen 13305
entieren 13306
Gibt 13307
Vereinfachung 13308
Brun@@ 13309
vorsch@@ 13310
heißen 13311
hood 13312
stories 13313
revenues 13314
berühmte 13315
buch@@ 13316
1500 13317
organ 13318
Ama@@ 13319
1975 13320
stitu@@ 13321
tail 13322
hn 13323
smo@@ 13324
igen 13325
Adam 13326
than@@ 13327
enta 13328
kil@@ 13329
Jordan 13330
stattfindet 13331
rot@@ 13332
entiert 13333
cart 13334
ätzung 13335
Mann@@ 13336
Programmierung 13337
Sein 13338
verfol@@ 13339
tness 13340
solely 13341
gefallen 13342
Immun@@ 13343
Zellen 13344
ritt 13345
abgestimmt 13346
Eines 13347
Governance 13348
acid 13349
Herd 13350
zeichneten 13351
schnellen 13352
Register 13353
Times 13354
10,@@ 13355
eing 13356
bled 13357
lar@@ 13358
SS 13359
Fun@@ 13360
dest 13361
DG 13362
itäten 13363
Gewinn@@ 13364
atten@@ 13365
ith 13366
wendung 13367
courage 13368
Bemerkungen 13369
UNESCO 13370
Legal 13371
agents 13372
Consul@@ 13373
ologischer 13374
abgelehnt 13375
suffer 13376
EBIT 13377
Staats- 13378
SQL 13379
treatments 13380
rain 13381
Train 13382
exclusion 13383
Copyright 13384
künst@@ 13385
dramati@@ 13386
Ast@@ 13387
eo@@ 13388
ulate 13389
Fleisch 13390
ption 13391
Bug@@ 13392
ardo 13393
astic 13394
zugrunde 13395
Audio@@ 13396
Gratis@@ 13397
headquarters 13398
Nic@@ 13399
relevanten 13400
schlüsse 13401
bla@@ 13402
Rechtsstaatlichkeit 13403
Ran@@ 13404
Vielleicht 13405
stro 13406
Konsens 13407
enzi@@ 13408
hot@@ 13409
Silver 13410
Stan@@ 13411
rad@@ 13412
Process 13413
glad 13414
Ministerium 13415
Mechanismen 13416
codes 13417
identification 13418
fix@@ 13419
authors 13420
Palma 13421
Tür 13422
Kun@@ 13423
Einsatz@@ 13424
uth 13425
energie 13426
reconstruction 13427
Eff@@ 13428
MER@@ 13429
Internetanschluss 13430
aka 13431
Kommissionsmitglied 13432
zentral 13433
sinstru@@ 13434
dsch@@ 13435
Situationen 13436
finish 13437
attended 13438
tual 13439
inmitten 13440
PLUS 13441
hä@@ 13442
zukünftige 13443
index 13444
m. 13445
ato@@ 13446
brain 13447
GER 13448
Vorsitzender 13449
civili@@ 13450
football 13451
Fisheries 13452
vorläufi@@ 13453
aluminium 13454
2019 13455
Präsenz 13456
Temperatur 13457
gewähren 13458
Ausgang 13459
vermitteln 13460
Meister@@ 13461
Jam@@ 13462
Faktor 13463
entgegen 13464
logo 13465
apart 13466
gründen 13467
E.@@ 13468
Raums 13469
lick 13470
Third 13471
Ursachen 13472
erlebt 13473
Christians 13474
1967 13475
pit@@ 13476
progres@@ 13477
Tor 13478
Reich 13479
läßt 13480
rice 13481
Wandern 13482
Intensi@@ 13483
9001 13484
honourable 13485
Flug 13486
tes@@ 13487
heads 13488
MP 13489
Rosen@@ 13490
RAM 13491
difficulty 13492
feder@@ 13493
übt 13494
änderungen 13495
cca 13496
multilateral 13497
mond 13498
passen 13499
F. 13500
Mechanismus 13501
án 13502
Instrument@@ 13503
Facilities 13504
Ton 13505
surveillance 13506
Rav@@ 13507
förderung 13508
südlichen 13509
zy 13510
sample 13511
NAS 13512
Cultural 13513
logical 13514
ito 13515
gekennzeichnet 13516
usses 13517
freiwil@@ 13518
tary 13519
neten 13520
EZ@@ 13521
Hostels 13522
59@@ 13523
Angeles 13524
fell 13525
quellen 13526
Volt 13527
Derzeit 13528
kern 13529
serie 13530
hl 13531
Felder 13532
industriellen 13533
Woo@@ 13534
lek@@ 13535
Coo@@ 13536
gingen 13537
wonach 13538
Spielen 13539
gestal@@ 13540
kit@@ 13541
europ@@ 13542
eco@@ 13543
chers 13544
verbindung 13545
Zahn@@ 13546
Sicherheit@@ 13547
Flexi@@ 13548
bre 13549
familien@@ 13550
solches 13551
Ladies 13552
reihe 13553
umin@@ 13554
eigenem 13555
warning 13556
Lehre 13557
Nacht@@ 13558
Kais@@ 13559
stock@@ 13560
ücken 13561
indicate 13562
verwei@@ 13563
finanzierung 13564
thri@@ 13565
Allianz 13566
tory 13567
relationships 13568
deeply 13569
bewertet 13570
mir@@ 13571
ungsverfahren 13572
branch 13573
ßten 13574
tower 13575
österreichischen 13576
Labour 13577
Ingenie@@ 13578
Kunststoff@@ 13579
Pack@@ 13580
Anhang 13581
ausgesprochen 13582
KW 13583
Mobili@@ 13584
centers 13585
TER 13586
Besitz@@ 13587
eingeladen 13588
itt 13589
behin@@ 13590
Lager@@ 13591
Ocean 13592
cool 13593
angemessenen 13594
Pain@@ 13595
eness 13596
Like 13597
roots 13598
arising 13599
tiker 13600
prospects 13601
Program@@ 13602
anen 13603
Regulierungs@@ 13604
Wesen 13605
hielt 13606
Moderne 13607
ually 13608
convergence 13609
jur@@ 13610
Strasbourg 13611
prefer 13612
öffnet 13613
vgl. 13614
proposing 13615
antwor@@ 13616
Feuer@@ 13617
AW@@ 13618
hardly 13619
AKP-@@ 13620
Übereinkommens 13621
Bla@@ 13622
schauen 13623
stätten 13624
considering 13625
chemische 13626
poll@@ 13627
Unterzeichnung 13628
rap@@ 13629
Volkes 13630
5x@@ 13631
02-Finale 13632
roll 13633
spectrum 13634
gültig 13635
addressing 13636
initiated 13637
Südo@@ 13638
navigation 13639
geschi@@ 13640
speciali@@ 13641
lovely 13642
Lieferanten 13643
Möchten 13644
ao@@ 13645
compres@@ 13646
publi@@ 13647
vergeben 13648
eat 13649
eits@@ 13650
230@@ 13651
Temp@@ 13652
regret 13653
Schwä@@ 13654
Koch@@ 13655
proportion 13656
09@@ 13657
Kreis 13658
Unit 13659
existiert 13660
enting 13661
Mischung 13662
vereinbarten 13663
calendar 13664
atures 13665
vorschlag 13666
erei 13667
Nachbarn 13668
verständ@@ 13669
Debian-@@ 13670
Sant@@ 13671
UR 13672
typischen 13673
musikali@@ 13674
Vic@@ 13675
steuerung 13676
flächen 13677
stau@@ 13678
verordnung 13679
Konfiguration 13680
Denken 13681
Supervisory 13682
GAP 13683
integri@@ 13684
snow 13685
atische 13686
sight 13687
emi@@ 13688
repeat 13689
offiziell 13690
FS 13691
Bridge 13692
derzeitige 13693
Runde 13694
publish@@ 13695
Ethernet 13696
Heb@@ 13697
Finn@@ 13698
Linz 13699
zerstört 13700
residential 13701
Nap@@ 13702
äuß@@ 13703
rolle 13704
lichkeits@@ 13705
mün@@ 13706
Nigeria 13707
favourable 13708
Haut@@ 13709
nica 13710
inter 13711
RD 13712
dog 13713
58@@ 13714
camp@@ 13715
Zuständigkeit 13716
District 13717
Selbst 13718
alities 13719
verbin@@ 13720
digung 13721
Last@@ 13722
dien 13723
bru@@ 13724
recognize 13725
Nar@@ 13726
Apost@@ 13727
comparable 13728
Manuel 13729
tan 13730
wächst 13731
stützt 13732
jenen 13733
Bereitschaft 13734
.06.@@ 13735
ergänzen 13736
mouth 13737
eland 13738
grown 13739
schulen 13740
inten@@ 13741
Ernährung 13742
seln 13743
orientation 13744
lück@@ 13745
ring@@ 13746
complicated 13747
grid 13748
starb 13749
Premierminister 13750
inary 13751
WTO-@@ 13752
gedacht 13753
r.@@ 13754
effizienter 13755
assure 13756
bot 13757
Absch@@ 13758
humanity 13759
indicators 13760
Fahrer 13761
plenary 13762
vest@@ 13763
beendet 13764
Rückgang 13765
Gemein@@ 13766
romantic 13767
Erst 13768
united 13769
erweitern 13770
abor@@ 13771
Van@@ 13772
designer 13773
whereas 13774
dity 13775
ady 13776
fax 13777
cious 13778
Gruppen@@ 13779
1977 13780
nachdrücklich 13781
tariat 13782
minorities 13783
Pakete 13784
gross 13785
äußern 13786
uniform 13787
CI 13788
itten 13789
maker 13790
safeguard 13791
gebeten 13792
exi@@ 13793
orien 13794
Philosophie 13795
Umwel@@ 13796
Palette 13797
Appartement 13798
Stein 13799
gelegenen 13800
Dass 13801
OLAF 13802
Interior 13803
freely 13804
teren 13805
observed 13806
suggestions 13807
Marken@@ 13808
freund@@ 13809
OK 13810
RS 13811
Aktions@@ 13812
twice 13813
dei 13814
verage 13815
churches 13816
furnishings 13817
Georgien 13818
Prix 13819
stärkere 13820
Bauernhof 13821
Flughäfen 13822
swit@@ 13823
Vorstand 13824
engaged 13825
schrieb 13826
Hart@@ 13827
rus@@ 13828
erstaun@@ 13829
elektr@@ 13830
UM 13831
Dynamik 13832
motorway 13833
M.@@ 13834
euer 13835
Hauptbahnhof 13836
communic@@ 13837
Werkzeuge 13838
turning 13839
Verkaufs@@ 13840
Apart@@ 13841
round@@ 13842
manufactured 13843
Getränke 13844
Räume 13845
And@@ 13846
durchschnittliche 13847
erseits 13848
Language 13849
ICA 13850
signals 13851
Techn@@ 13852
gemä@@ 13853
sing@@ 13854
rey 13855
schlag 13856
Olymp@@ 13857
Barb@@ 13858
1972 13859
Collection 13860
bus@@ 13861
japanese 13862
Appartements 13863
deadline 13864
zukünftigen 13865
Sorgen 13866
binary 13867
lem 13868
gige 13869
bestellen 13870
dal@@ 13871
entlichen 13872
frü@@ 13873
gelesen 13874
Hochschul@@ 13875
Prop@@ 13876
Konflikte 13877
Christi 13878
maßen 13879
anticip@@ 13880
Vac@@ 13881
reibungs@@ 13882
anning 13883
Außenpolitik 13884
structured 13885
restored 13886
incl 13887
erien@@ 13888
sin 13889
jum@@ 13890
Maastricht 13891
ilt 13892
Ratspräsident 13893
dignity 13894
Beobach@@ 13895
angewandt 13896
Weiß@@ 13897
OECD 13898
religiösen 13899
contra@@ 13900
mption 13901
emphasise 13902
Original@@ 13903
vorhaben 13904
Hot@@ 13905
damages 13906
Einwanderung 13907
teacher 13908
airports 13909
transmitted 13910
123 13911
gebäude 13912
Volkswagen 13913
wahre 13914
anner 13915
Rahmenbedingungen 13916
E-Mail-Adresse 13917
fügt 13918
zip 13919
gesetz 13920
law@@ 13921
Är@@ 13922
dou@@ 13923
specialists 13924
precision 13925
quet 13926
H.@@ 13927
Flights 13928
Experience 13929
grants 13930
Nokia 13931
erhoben 13932
drives 13933
Kali@@ 13934
Lux@@ 13935
farming 13936
Release 13937
Extra@@ 13938
imag@@ 13939
globalisation 13940
Him@@ 13941
angewendet 13942
bist 13943
horizontal 13944
sied@@ 13945
Eco@@ 13946
elsewhere 13947
suffered 13948
wertung 13949
suit 13950
penalty 13951
Hochschule 13952
Fis@@ 13953
signing 13954
fat@@ 13955
anger@@ 13956
kurs 13957
Diagno@@ 13958
CU@@ 13959
streben 13960
encouraged 13961
ansichten 13962
Sol 13963
Limited 13964
Gh@@ 13965
fts@@ 13966
usw 13967
etter@@ 13968
Gerade 13969
developers 13970
integrate 13971
Juan 13972
ecological 13973
lity 13974
measured 13975
Werkzeug 13976
vorbei 13977
necessarily 13978
constitutes 13979
Unterstütz@@ 13980
atur@@ 13981
festen 13982
Sachver@@ 13983
Milch@@ 13984
overlooking 13985
Vice 13986
Connec@@ 13987
loser 13988
therapie 13989
machinery 13990
know-how 13991
hunder@@ 13992
Pflanzen@@ 13993
Vermögens@@ 13994
Bosnia 13995
eus 13996
Cub@@ 13997
normally 13998
gepf@@ 13999
brown 14000
ishing 14001
mining 14002
57@@ 14003
INE 14004
Öko@@ 14005
cost-@@ 14006
entstand 14007
linge 14008
Handy 14009
labelling 14010
Direc@@ 14011
wel 14012
Wellness@@ 14013
translated 14014
Geträn@@ 14015
voraus 14016
Überlegungen 14017
Schulden@@ 14018
relief 14019
Leucht@@ 14020
chens 14021
Öffnung 14022
miet@@ 14023
Have 14024
biological 14025
Ganz 14026
behand@@ 14027
wach@@ 14028
comprises 14029
kürz@@ 14030
IM 14031
einschlägigen 14032
beenden 14033
Durchsetzung 14034
ehrgei@@ 14035
cla@@ 14036
Alps 14037
Ratsvorsitz 14038
chtungs@@ 14039
sprin@@ 14040
01-Finale 14041
asion 14042
russi@@ 14043
ffer 14044
ood 14045
world-@@ 14046
geschafft 14047
cha 14048
Altern@@ 14049
ef 14050
Wasch@@ 14051
Graphi@@ 14052
Pierre 14053
prison 14054
allocation 14055
dün@@ 14056
Easy 14057
Camp 14058
underground 14059
introducing 14060
paintings 14061
Danach 14062
derten 14063
Besteck 14064
technique 14065
P. 14066
workshops 14067
Gefahren 14068
standardi@@ 14069
konzep@@ 14070
Effek@@ 14071
Übersicht 14072
zwölf 14073
Model 14074
techn@@ 14075
mmet@@ 14076
Gang 14077
Kopenhagen 14078
Sachen 14079
gradually 14080
atz@@ 14081
eben@@ 14082
alien 14083
Spezialitäten 14084
uten 14085
promised 14086
adopting 14087
06@@ 14088
Castell@@ 14089
Journalisten 14090
Ausmaß 14091
reservations 14092
Verlag 14093
hierbei 14094
nachzu@@ 14095
hingegen 14096
discharge 14097
Aktien 14098
Dres@@ 14099
orange 14100
gestellte 14101
ACP 14102
luxurious 14103
Vertriebs@@ 14104
of@@ 14105
anspruchs@@ 14106
puts 14107
trag 14108
Cour@@ 14109
Opposition 14110
pati@@ 14111
sech@@ 14112
Hun@@ 14113
Café 14114
achievement 14115
paket 14116
fern@@ 14117
native 14118
fang 14119
Abhängigkeit 14120
loaded 14121
DM 14122
angenehme 14123
zige 14124
Activities 14125
grafischen 14126
felder 14127
günstige 14128
fehlen 14129
einheit@@ 14130
Ratspräsidentschaft 14131
ped 14132
Whether 14133
gewöhnlich 14134
etabli@@ 14135
Sili@@ 14136
capabilities 14137
wur@@ 14138
1969 14139
gesetzlichen 14140
garage 14141
breakfasts 14142
zuzu@@ 14143
zugs@@ 14144
Desk 14145
Kompetenz 14146
Wesentlichen 14147
JO@@ 14148
Giovanni 14149
tioning 14150
Entschließungsantrag 14151
Gewinner 14152
erleichtert 14153
sound@@ 14154
exploitation 14155
inher@@ 14156
Kompetenzen 14157
Cont@@ 14158
zerti@@ 14159
gy 14160
Mill@@ 14161
stick 14162
Pad@@ 14163
Großteil 14164
Lon@@ 14165
transformation 14166
judgment 14167
gangen 14168
spezif@@ 14169
ost@@ 14170
ought 14171
bag 14172
gewissen 14173
ā@@ 14174
Gegenwart 14175
Architekten 14176
baus 14177
preventing 14178
breit 14179
anleitung 14180
Commerce 14181
Kapazitäten 14182
asks 14183
guidance 14184
hist@@ 14185
210 14186
invites 14187
650 14188
gendes 14189
mieten 14190
TEN@@ 14191
dal 14192
greif@@ 14193
restricted 14194
Spek@@ 14195
ht@@ 14196
yl 14197
EK@@ 14198
Sollte 14199
Sac@@ 14200
zäh@@ 14201
Marie 14202
Provi@@ 14203
öse 14204
omen 14205
ständigkeit 14206
Rotary 14207
lass@@ 14208
sought 14209
wäl@@ 14210
mile 14211
tti 14212
Entdecken 14213
adverti@@ 14214
G. 14215
onic 14216
Kontaktieren 14217
trails 14218
XML 14219
yo 14220
druckt 14221
älteren 14222
medicines 14223
ausgaben 14224
Innovations@@ 14225
herz@@ 14226
Erreichung 14227
ease 14228
Klei@@ 14229
wick@@ 14230
verdient 14231
Reserve 14232
suggested 14233
efficiently 14234
regardless 14235
arest 14236
super 14237
ouse 14238
Referenz@@ 14239
Jack@@ 14240
esh 14241
sensi@@ 14242
Nation 14243
Func@@ 14244
particuliers 14245
Spektrum 14246
ship@@ 14247
lten 14248
essed 14249
Höh@@ 14250
Leb@@ 14251
stam@@ 14252
deliber@@ 14253
Autoren 14254
angekündigt 14255
William 14256
wesentlicher 14257
beschäftigen 14258
wu@@ 14259
ssa 14260
Strand@@ 14261
festzulegen 14262
Nä@@ 14263
evi@@ 14264
Matthias 14265
getrennt 14266
infl@@ 14267
Peri@@ 14268
Itali@@ 14269
staat@@ 14270
nicht-@@ 14271
wen 14272
Import 14273
losigkeit 14274
Key 14275
institutionelle 14276
Orten 14277
archive 14278
loy@@ 14279
alisieren 14280
umfang@@ 14281
Ludwig 14282
stainless 14283
voltage 14284
nische 14285
Wettbewer@@ 14286
fundament@@ 14287
5-0@@ 14288
tica 14289
Sop@@ 14290
Vorlage 14291
erheblichen 14292
Among 14293
cali@@ 14294
deck 14295
5000 14296
nov@@ 14297
Liqui@@ 14298
tnissen 14299
FC 14300
135 14301
d.@@ 14302
qualitativ 14303
perat@@ 14304
certificate 14305
schle@@ 14306
compar@@ 14307
Marine 14308
Händler 14309
simultaneously 14310
schreit@@ 14311
aufzubauen 14312
Official 14313
TRO@@ 14314
Pfer@@ 14315
ECHO 14316
Al-@@ 14317
± 14318
zza 14319
GO@@ 14320
API 14321
committees 14322
Respon@@ 14323
Argentinien 14324
Kollege 14325
Wirtschaftspolitik 14326
praktischen 14327
emm@@ 14328
tigten 14329
Graph 14330
viewed 14331
datei 14332
constitution 14333
accident 14334
Scre@@ 14335
Liechtenstein 14336
fährt 14337
Cathedral 14338
adjusted 14339
Baby@@ 14340
bili@@ 14341
ault 14342
103 14343
by-@@ 14344
mittlerweile 14345
behält 14346
enjoyed 14347
fut@@ 14348
Discover 14349
renoviert 14350
proz@@ 14351
iner@@ 14352
emplo@@ 14353
innovations 14354
utensils 14355
bewertung 14356
Berlinale 14357
Trend 14358
Abenteuer 14359
gast@@ 14360
Cross@@ 14361
Workshop 14362
Heimat 14363
Muslim 14364
ror 14365
Olympic 14366
Audi@@ 14367
Minute 14368
eite 14369
strand 14370
überein 14371
Mario 14372
Schwarz 14373
erfahr@@ 14374
Konzepte 14375
betreiben 14376
Meister 14377
CER@@ 14378
transfers 14379
Know-how 14380
Bewusstsein 14381
broad@@ 14382
consequence 14383
bahnen 14384
Tower 14385
flowers 14386
agentur 14387
not@@ 14388
meldung 14389
threats 14390
hochwertigen 14391
Kohäsionspolitik 14392
betten 14393
Help 14394
fireplace 14395
propor@@ 14396
professionelle 14397
Case 14398
21.@@ 14399
effek@@ 14400
Übernachtung 14401
perform@@ 14402
resolutions 14403
picturesque 14404
Käufer 14405
Unions@@ 14406
poker 14407
unforgettable 14408
founder 14409
beeinflussen 14410
Loc@@ 14411
bungen 14412
tigkeits@@ 14413
connec@@ 14414
upgra@@ 14415
Ausgangs@@ 14416
überwinden 14417
Export@@ 14418
Sound@@ 14419
anforderungen 14420
kro@@ 14421
beschreibt 14422
ECB 14423
zo 14424
Tieren 14425
Nordic 14426
pfli@@ 14427
erteilt 14428
refer@@ 14429
delegations 14430
schwere 14431
Wiederaufbau 14432
interne 14433
ändert 14434
nat@@ 14435
goo@@ 14436
Epi@@ 14437
textile 14438
Erzeu@@ 14439
SD 14440
oth@@ 14441
eless 14442
forwar@@ 14443
prosec@@ 14444
wire 14445
Telef@@ 14446
ersucht 14447
Wohn- 14448
secondary 14449
paying 14450
wahr 14451
drucken 14452
terung 14453
whi@@ 14454
onien 14455
mäßigen 14456
exzell@@ 14457
Instruments 14458
seminar 14459
Parts 14460
militärische 14461
tons 14462
hard@@ 14463
effizienten 14464
Water@@ 14465
IMF 14466
outs 14467
zeichnung 14468
umfassend 14469
hospital 14470
objec@@ 14471
Zoll 14472
ains 14473
lined 14474
geographical 14475
cles 14476
herrlichen 14477
confron@@ 14478
iPod 14479
Veranstaltungs@@ 14480
dominant 14481
Schrift@@ 14482
empfängt 14483
Love 14484
beobach@@ 14485
Lettland 14486
institu@@ 14487
dent@@ 14488
Jury 14489
Make 14490
besorgt 14491
joy 14492
Gerä@@ 14493
amazing 14494
denkt 14495
Pictures 14496
Oder 14497
Existenz 14498
Vorsitzes 14499
dialog 14500
perc@@ 14501
spätestens 14502
geboten 14503
eventually 14504
richt@@ 14505
56@@ 14506
Produktivität 14507
Zusätzlich 14508
wör@@ 14509
Spanisch 14510
Laden 14511
ycle 14512
ses@@ 14513
na@@ 14514
kle@@ 14515
externe 14516
E.ON 14517
initially 14518
ih@@ 14519
Inf@@ 14520
zent@@ 14521
a.com 14522
territorial 14523
Stamm@@ 14524
GM 14525
337@@ 14526
ule 14527
inspection 14528
finds 14529
inn 14530
technischer 14531
potenti@@ 14532
ank 14533
träge 14534
anbelangt 14535
deutscher 14536
Dubai 14537
Lei 14538
izi@@ 14539
stung 14540
appelli@@ 14541
executive 14542
blatt 14543
primi@@ 14544
bra 14545
Xi@@ 14546
arbeiteten 14547
PN@@ 14548
polnischen 14549
kontrolliert 14550
sek@@ 14551
gie@@ 14552
Add 14553
öl 14554
commun@@ 14555
whe@@ 14556
Carl 14557
pum@@ 14558
Cloud 14559
aal 14560
befasst 14561
Zins@@ 14562
Inclu@@ 14563
Does 14564
Koordin@@ 14565
Zus@@ 14566
Kontinent 14567
Ausstellungs@@ 14568
grateful 14569
Szen@@ 14570
aki 14571
Schne@@ 14572
atischen 14573
chol@@ 14574
strateg@@ 14575
Account 14576
Studios 14577
merg@@ 14578
desto 14579
jahres@@ 14580
grös@@ 14581
ook 14582
icon 14583
Erwerb 14584
außen 14585
Reinigung 14586
urlaub 14587
Milli@@ 14588
Out 14589
Mut 14590
BSE 14591
position@@ 14592
timm@@ 14593
peri@@ 14594
ruppe 14595
Muster 14596
S.A. 14597
eigener 14598
trav@@ 14599
sim@@ 14600
Sciences 14601
konz@@ 14602
umsetzen 14603
beding@@ 14604
fuhren 14605
mitzu@@ 14606
della 14607
leather 14608
Smart@@ 14609
Otto 14610
währ@@ 14611
Procedure 14612
competitors 14613
Produktion@@ 14614
Venezuela 14615
cameras 14616
Journ@@ 14617
fifth 14618
tiz@@ 14619
exemp@@ 14620
immigrants 14621
glichkeit 14622
Designer 14623
Abu 14624
daten@@ 14625
Regen@@ 14626
parliaments 14627
MP3 14628
realisiert 14629
inquiry 14630
subsidiarity 14631
ausgewählten 14632
counter 14633
bereiten 14634
stärksten 14635
bekommt 14636
Widerstand 14637
cock@@ 14638
beer 14639
poses 14640
GE@@ 14641
3.1 14642
boden 14643
preliminary 14644
describes 14645
kennt 14646
cos 14647
Riviera 14648
Having 14649
Hinweise 14650
Treiber 14651
Kontra@@ 14652
lingen 14653
Venti@@ 14654
mium 14655
occasions 14656
Moon 14657
beträcht@@ 14658
Senkung 14659
Besides 14660
Dafür 14661
alists 14662
MySQL 14663
DB@@ 14664
medizinischen 14665
stering 14666
bott@@ 14667
musi@@ 14668
Weiteren 14669
Kle@@ 14670
Laser@@ 14671
komponenten 14672
Il 14673
hills 14674
exposed 14675
TS-@@ 14676
resulted 14677
kompatibel 14678
loading 14679
kollek@@ 14680
platforms 14681
Estland 14682
mittlere 14683
regulated 14684
Git@@ 14685
Golfplatz 14686
å@@ 14687
concerts 14688
Netze 14689
Katastrophe 14690
fün@@ 14691
Learn 14692
accounting 14693
telecommunications 14694
Orts@@ 14695
Pav@@ 14696
bestehend 14697
nützlich 14698
everywhere 14699
tili@@ 14700
institute 14701
suited 14702
infra@@ 14703
at-@@ 14704
Watch 14705
LS 14706
220@@ 14707
Frühjahr 14708
vorschläge 14709
Gün@@ 14710
urg@@ 14711
freedoms 14712
320 14713
tagen 14714
negativen 14715
landwirtschaftlichen 14716
Wis@@ 14717
Abschaffung 14718
laboratory 14719
Pur@@ 14720
LT@@ 14721
Benach@@ 14722
Var@@ 14723
zeug@@ 14724
1974 14725
dumping 14726
charakter@@ 14727
ländliche 14728
of-@@ 14729
115 14730
Osteuropa 14731
conferences 14732
kla@@ 14733
Wo 14734
renewed 14735
Fokus 14736
Kau@@ 14737
Profil 14738
publications 14739
18-@@ 14740
ign@@ 14741
atorium 14742
Versorgungs@@ 14743
Respekt 14744
Beschränkungen 14745
entering 14746
bration 14747
Countries 14748
accordingly 14749
erfolgte 14750
Sektors 14751
Uhren 14752
Würde 14753
Address 14754
reck@@ 14755
Plätze 14756
RES@@ 14757
grün 14758
Od@@ 14759
engen 14760
nevertheless 14761
bewerten 14762
Hermann 14763
v. 14764
simul@@ 14765
Canc@@ 14766
Erfol@@ 14767
Cin@@ 14768
signi@@ 14769
Tempel 14770
Strei@@ 14771
constitu@@ 14772
engage 14773
Past@@ 14774
dere 14775
tun@@ 14776
fications 14777
hochwer@@ 14778
Kron@@ 14779
lical 14780
adding 14781
Ten@@ 14782
Ibiza 14783
Mittelmeer 14784
ère 14785
Müller 14786
Tee 14787
continuously 14788
kontrollieren 14789
illing 14790
Besonder@@ 14791
geistigen 14792
konzipiert 14793
coherent 14794
discher 14795
sonstigen 14796
fik@@ 14797
Jag@@ 14798
radik@@ 14799
Zusammenhalt 14800
Minder@@ 14801
preparations 14802
benen 14803
fordere 14804
enza 14805
prüf@@ 14806
attle 14807
leistet 14808
Looking 14809
attempts 14810
supposed 14811
cle 14812
erkunden 14813
bedeutenden 14814
revealed 14815
phenomenon 14816
itte 14817
displays 14818
genes 14819
Auditors 14820
occurred 14821
Feder@@ 14822
dend 14823
-European 14824
Öff@@ 14825
lining 14826
fis@@ 14827
wirksamen 14828
vili@@ 14829
verbreit@@ 14830
Bühne 14831
Näch@@ 14832
gemeinsames 14833
Ce@@ 14834
Whirlpool 14835
MV@@ 14836
verteidigen 14837
enses 14838
managers 14839
assigned 14840
inhabited 14841
Ereignis 14842
sauber 14843
enthalt 14844
Terra@@ 14845
Bedürfnissen 14846
bewältigen 14847
Torre 14848
eure 14849
Werner 14850
tique 14851
jec@@ 14852
Konsequenzen 14853
VIL@@ 14854
Techni@@ 14855
verarbeitung 14856
unglaub@@ 14857
bevölkerung 14858
Presse@@ 14859
Zuverlässigkeit 14860
hundert 14861
schreibt 14862
ierungs@@ 14863
shortly 14864
CAN@@ 14865
här@@ 14866
emission 14867
eingesch@@ 14868
IP-@@ 14869
mp 14870
schol@@ 14871
winners 14872
highlighted 14873
gische 14874
Theorie 14875
empfin@@ 14876
dir@@ 14877
Deswegen 14878
tracks 14879
Ltd. 14880
lling 14881
vertei@@ 14882
nur@@ 14883
mination 14884
aking 14885
reichhal@@ 14886
tiere 14887
Ablauf 14888
Noch 14889
heres 14890
entran@@ 14891
verbesserte 14892
inch 14893
Erasmus 14894
Fang@@ 14895
geladen 14896
Josef 14897
Brief 14898
Bewältigung 14899
orium 14900
etter 14901
behaupten 14902
Dr 14903
tips 14904
top-@@ 14905
Advanced 14906
Willkommen 14907
conservation 14908
Gemäß 14909
bilateralen 14910
succeed 14911
lights 14912
japanisch 14913
grafische 14914
electronics 14915
Bosnien 14916
elegante 14917
gewünschten 14918
SER@@ 14919
aktuell 14920
Justiz@@ 14921
speaker 14922
gehörige 14923
Tschechischen 14924
Freiheiten 14925
korrekt 14926
Bestätigung 14927
kung 14928
adult 14929
Handlungs@@ 14930
sheets 14931
purchased 14932
neutral 14933
Aktivität 14934
Ausweitung 14935
à@@ 14936
bay 14937
Trends 14938
Heating 14939
leitet 14940
Champ@@ 14941
Regulierung 14942
neck 14943
Ang@@ 14944
LES 14945
Alex@@ 14946
Co-@@ 14947
.02.@@ 14948
hou@@ 14949
Verteidigungs@@ 14950
kommun@@ 14951
infolge 14952
arguments 14953
Bord 14954
zun@@ 14955
Split 14956
Gesicht 14957
anno@@ 14958
Sax@@ 14959
repe@@ 14960
Certi@@ 14961
mad 14962
wirkungen 14963
erörtert 14964
anywhere 14965
Klavier 14966
porting 14967
Written 14968
influ@@ 14969
77@@ 14970
grenzüberschreitenden 14971
Situated 14972
saf@@ 14973
Personen@@ 14974
Verbrau@@ 14975
beseitigen 14976
propri@@ 14977
kilometers 14978
accuracy 14979
Barbara 14980
melden 14981
Buddh@@ 14982
plane 14983
25-@@ 14984
Wiederherstellung 14985
automatische 14986
non 14987
wie@@ 14988
mien 14989
Quell@@ 14990
Material@@ 14991
yle 14992
Nikol@@ 14993
il-@@ 14994
qualities 14995
seeks 14996
sichten 14997
urch@@ 14998
gesucht 14999
Tennis@@ 15000
BSOD 15001
tiver 15002
wohn@@ 15003
aia 15004
Merkmale 15005
credibility 15006
BN@@ 15007
aked 15008
asa 15009
Eintritt 15010
blieb 15011
Gleichstellung 15012
verdienen 15013
merken 15014
KL@@ 15015
RU@@ 15016
none 15017
Has@@ 15018
Dieter 15019
promise 15020
Effekt 15021
garanti@@ 15022
berufliche 15023
verzer@@ 15024
concentrate 15025
OR 15026
asen 15027
Drittens 15028
CR 15029
amending 15030
lar 15031
rupt 15032
Dafa 15033
IBM 15034
wish@@ 15035
amm 15036
Akademie 15037
Tech 15038
bler 15039
Solarium 15040
palästinensischen 15041
referendum 15042
Fernseher 15043
bedürf@@ 15044
fizi@@ 15045
Spannung 15046
É@@ 15047
commerce 15048
fire@@ 15049
Fähr@@ 15050
Kru@@ 15051
hervorgehoben 15052
representing 15053
Brow@@ 15054
Ig@@ 15055
papers 15056
Ble@@ 15057
Verlängerung 15058
Singapore 15059
Europa@@ 15060
seeds 15061
HER@@ 15062
ad-@@ 15063
gere@@ 15064
Todes@@ 15065
atemberau@@ 15066
Besitzer 15067
Mercedes-Benz 15068
Bern 15069
removal 15070
politically 15071
Ursprung 15072
lebenden 15073
verbreitet 15074
ecker 15075
102 15076
chap@@ 15077
aled 15078
manche 15079
Democratic 15080
11,@@ 15081
cut@@ 15082
greenhouse 15083
vocational 15084
leihen 15085
basierte 15086
Passwort 15087
sauber@@ 15088
ön 15089
Well 15090
aufgeführt 15091
recre@@ 15092
Gehäuse 15093
univers@@ 15094
Lebanon 15095
Prozent@@ 15096
ulen 15097
fast@@ 15098
sorge 15099
Blut 15100
ELL@@ 15101
Einzelheiten 15102
Bike 15103
Meerblick 15104
geschickt 15105
minibar 15106
joining 15107
heated 15108
allo@@ 15109
Vall@@ 15110
Are@@ 15111
issu@@ 15112
Schwellen@@ 15113
gebnis 15114
editor 15115
ownership 15116
narrow 15117
umzu@@ 15118
angebracht 15119
compens@@ 15120
aired 15121
Gum@@ 15122
binden 15123
mediterran@@ 15124
elev@@ 15125
Catal@@ 15126
bia 15127
Alpen 15128
Avenue 15129
Engli@@ 15130
¶ 15131
verarbeitet 15132
playground 15133
sident 15134
communicate 15135
Therap@@ 15136
een 15137
beinhalten 15138
ference 15139
Zo@@ 15140
Konsum@@ 15141
anzen 15142
congrat@@ 15143
ila 15144
Kathedrale 15145
Balkan 15146
Rural 15147
korrigi@@ 15148
Alexand@@ 15149
umen@@ 15150
1960 15151
Quad@@ 15152
gemeinsamer 15153
Seen 15154
A2 15155
Beschwerde@@ 15156
pattern 15157
Chr@@ 15158
column 15159
direk@@ 15160
Investitionsbank 15161
Joh@@ 15162
Öffent@@ 15163
SG@@ 15164
FH@@ 15165
kernel 15166
consisting 15167
forderte 15168
Cuba 15169
unmittelbarer 15170
gemessen 15171
dus 15172
zuge@@ 15173
Brandenburg 15174
Sobald 15175
pharmaceutical 15176
photography 15177
Schlei@@ 15178
Archive 15179
key@@ 15180
dom 15181
Heil@@ 15182
literature 15183
elimin@@ 15184
cooling 15185
Dokumenten 15186
intermedi@@ 15187
Pope 15188
diplomati@@ 15189
weißen 15190
adds 15191
officially 15192
newsletter 15193
beruflichen 15194
Fair@@ 15195
1944 15196
geteilt 15197
konzept 15198
Linien 15199
Truck 15200
Monte@@ 15201
Fliesen 15202
attend 15203
türkischen 15204
.04.@@ 15205
reiben 15206
arranged 15207
mechanismus 15208
Aufnahmen 15209
Gewi@@ 15210
woo@@ 15211
racing 15212
Juncker 15213
justi@@ 15214
Finanzi@@ 15215
prayer 15216
Mandat 15217
erischen 15218
gin 15219
equity 15220
implications 15221
receives 15222
Americans 15223
dah@@ 15224
Tibet 15225
Jugendliche 15226
TEC 15227
superior 15228
ausländischen 15229
pft 15230
Works 15231
firstly 15232
Stimm@@ 15233
prime 15234
Vertrieb@@ 15235
spür@@ 15236
anzuwenden 15237
firmly 15238
0.0@@ 15239
extre@@ 15240
Geburt 15241
Death 15242
reject 15243
progressive 15244
beeindruck@@ 15245
Que@@ 15246
Section 15247
Ful@@ 15248
niedrigen 15249
Rica 15250
selb@@ 15251
vacc@@ 15252
gesetzten 15253
vre 15254
worthy 15255
sufficiently 15256
harmful 15257
liable 15258
ahl@@ 15259
88@@ 15260
Wirtschaftskrise 15261
Gä@@ 15262
benutz@@ 15263
Quart@@ 15264
protein 15265
effektive 15266
themes 15267
ausstellung 15268
Tol@@ 15269
anlässlich 15270
stil 15271
harmonisation 15272
600@@ 15273
hausen 15274
teln 15275
fing 15276
cabin 15277
bark@@ 15278
pin 15279
HS 15280
Verbrauchern 15281
Gute 15282
inischen 15283
Living 15284
Funktion@@ 15285
arly 15286
evalu@@ 15287
amo@@ 15288
Print 15289
CO2-@@ 15290
ruling 15291
violations 15292
Kup@@ 15293
Bam@@ 15294
erstreckt 15295
voraussichtlich 15296
Erwer@@ 15297
andel 15298
kamp@@ 15299
getro@@ 15300
ulieren 15301
ovi@@ 15302
ids 15303
empty 15304
distur@@ 15305
MAT@@ 15306
bewegung 15307
ancing 15308
sensors 15309
treas@@ 15310
till 15311
fÃ 15312
tten@@ 15313
Alm@@ 15314
liger 15315
beantworten 15316
Anne 15317
acker 15318
1971 15319
regionen 15320
tant 15321
Visa 15322
enberg 15323
Psy@@ 15324
flug@@ 15325
Fehl@@ 15326
writer 15327
veröffentlichen 15328
ausgestellt 15329
stücke 15330
Hydro@@ 15331
eleganten 15332
rek@@ 15333
End 15334
til@@ 15335
geomet@@ 15336
Wettbewerbs 15337
hohes 15338
Gemeinsam 15339
Chal@@ 15340
partial 15341
Rechtsgrundlage 15342
erb@@ 15343
focusing 15344
adel@@ 15345
Stor@@ 15346
airlines 15347
returns 15348
Herkunft 15349
nord@@ 15350
elektrische 15351
Live-@@ 15352
Metro@@ 15353
behandlung 15354
ckel 15355
gehei@@ 15356
erwerben 15357
Doc@@ 15358
profits 15359
AU 15360
evil 15361
tious 15362
Jet 15363
Krist@@ 15364
Fabri@@ 15365
sogenannte 15366
104 15367
Rä@@ 15368
artige 15369
-Seite 15370
Spor@@ 15371
Hyper@@ 15372
Nutzungs@@ 15373
benannt 15374
Alters@@ 15375
meals 15376
fried 15377
aufgestellt 15378
Junior 15379
Marc 15380
Beurteilung 15381
führender 15382
Volkswirtschaften 15383
hersteller 15384
eri 15385
Zell@@ 15386
GAR@@ 15387
photographs 15388
knew 15389
pillar 15390
Aires 15391
Augen@@ 15392
komplexe 15393
mail@@ 15394
xed 15395
refl@@ 15396
enly 15397
ökologischen 15398
leitungen 15399
Medizin@@ 15400
Question 15401
1.0 15402
Hell@@ 15403
kleinere 15404
Empfänger 15405
sophisticated 15406
disasters 15407
kontroll@@ 15408
coastal 15409
Interface 15410
quelle 15411
Herzegovina 15412
vals 15413
dispute 15414
surely 15415
grafie 15416
chro@@ 15417
ete@@ 15418
Speisen 15419
pris@@ 15420
dic 15421
adventure 15422
Communist 15423
Dun@@ 15424
wachen 15425
vereint 15426
radio@@ 15427
forming 15428
riebenen 15429
optical 15430
AF 15431
hd 15432
Workshops 15433
mensch@@ 15434
alcohol 15435
übrigens 15436
MC@@ 15437
ständiger 15438
etten@@ 15439
Großen 15440
Festplatte 15441
veri@@ 15442
brother 15443
mpf@@ 15444
dd@@ 15445
führungs@@ 15446
abend 15447
bezahlt 15448
fluss@@ 15449
hl@@ 15450
gestartet 15451
Comments 15452
verpfli@@ 15453
vie@@ 15454
vierten 15455
lokaler 15456
Awards 15457
zielt 15458
destinations 15459
tner 15460
meg@@ 15461
stisch 15462
grand@@ 15463
Tunisia 15464
.08.@@ 15465
lass 15466
sus 15467
Häfen 15468
onymous 15469
bilder 15470
cast@@ 15471
aux 15472
rieben 15473
conclu@@ 15474
4.5 15475
Simon 15476
studierte 15477
VE 15478
push@@ 15479
ř@@ 15480
SMS 15481
Konzentration 15482
dienstleistungen 15483
medieval 15484
bewegt 15485
füll@@ 15486
Büro@@ 15487
.eu 15488
Arbeitgeber 15489
.03.@@ 15490
interactive 15491
auswirken 15492
Verbrauch 15493
Sens@@ 15494
Baby 15495
Skype 15496
mers 15497
Jean-@@ 15498
ystem 15499
celebrated 15500
Mercedes 15501
newspaper 15502
fitted 15503
Ele@@ 15504
Fisch 15505
zentraler 15506
wachsende 15507
Ecologic 15508
rale 15509
Beau@@ 15510
anzubieten 15511
07@@ 15512
Inkrafttreten 15513
planung 15514
eal 15515
academic 15516
surprise 15517
Erzeugung 15518
volles 15519
Weine 15520
Auction 15521
smoking 15522
Nom@@ 15523
erheben 15524
phy@@ 15525
dio 15526
resistant 15527
DF@@ 15528
Kaiser 15529
Croatian 15530
accompli@@ 15531
Nan@@ 15532
Rechten 15533
Delegationen 15534
new@@ 15535
Pel@@ 15536
first-@@ 15537
küste 15538
ESS 15539
GL@@ 15540
participated 15541
Ped@@ 15542
doctor 15543
pretty 15544
könne 15545
kon 15546
abkommens 15547
verkehr@@ 15548
EEA 15549
Hostelsclub 15550
linens 15551
ANN@@ 15552
Ben 15553
tice 15554
Buenos 15555
anwesend 15556
spare 15557
it-@@ 15558
rer 15559
endo@@ 15560
vereinbar 15561
langer 15562
standes 15563
vorbehalten 15564
länge 15565
0s 15566
tub 15567
bewe@@ 15568
Koh@@ 15569
Verfahrens@@ 15570
Hände 15571
Ergänzung 15572
Karriere 15573
Gior@@ 15574
beizu@@ 15575
Friedens 15576
Kanal 15577
budgets 15578
fortgesetzt 15579
travelling 15580
station@@ 15581
rechtzeitig 15582
zio 15583
entscheidenden 15584
personenbezogenen 15585
kost@@ 15586
BS 15587
pling 15588
Santiago 15589
europa 15590
gü@@ 15591
Waffen@@ 15592
geringen 15593
Aufzug 15594
Zweiten 15595
dit 15596
sensible 15597
schönes 15598
p.m. 15599
Erlebnis 15600
Gebühren 15601
Steel 15602
fted 15603
incentives 15604
widespread 15605
Dum@@ 15606
Hill 15607
flexibel 15608
Lob@@ 15609
wendet 15610
genau@@ 15611
Aufforderung 15612
glich@@ 15613
siven 15614
berge 15615
Feuer 15616
Mobiltelef@@ 15617
spektakul@@ 15618
reiches 15619
container 15620
mäßige 15621
preserve 15622
Albania 15623
kB 15624
Dou@@ 15625
HR@@ 15626
luxuri@@ 15627
bread 15628
tonnes 15629
freier 15630
erstklassi@@ 15631
fizieren 15632
Ordner 15633
compatibility 15634
iPad 15635
ington 15636
URL 15637
ensu@@ 15638
Freizügigkeit 15639
postal 15640
appar@@ 15641
foot@@ 15642
gui@@ 15643
Tabak@@ 15644
e.V. 15645
Temperaturen 15646
wander@@ 15647
überwachen 15648
dacht 15649
geeigneten 15650
blin@@ 15651
essel@@ 15652
spiritu@@ 15653
Ombudsman 15654
permit 15655
zugelassen 15656
MF@@ 15657
basieren 15658
foundations 15659
Widerspruch 15660
orn 15661
staatlicher 15662
t.@@ 15663
Gebäuden 15664
verstärkte 15665
Athens 15666
Cott@@ 15667
Features 15668
Mut@@ 15669
inneren 15670
amenities 15671
personen 15672
Real@@ 15673
ät 15674
Sollten 15675
Offen@@ 15676
Traditionen 15677
Macedonia 15678
tionally 15679
contributing 15680
ergi@@ 15681
Soci@@ 15682
forth 15683
Deputy 15684
Schwimmbad 15685
applicant 15686
part@@ 15687
ity-@@ 15688
in-depth 15689
Fakten 15690
Marbella 15691
Stur@@ 15692
Wilhelm 15693
rangigen 15694
farb@@ 15695
Mengen 15696
unterschiedlicher 15697
arab@@ 15698
eci@@ 15699
Innerhalb 15700
Metern 15701
ckets 15702
komplexen 15703
zir@@ 15704
23.@@ 15705
propag@@ 15706
campsites 15707
disch 15708
schnei@@ 15709
Kund@@ 15710
herausfinden 15711
Ec@@ 15712
Until 15713
Directors 15714
Consequently 15715
40-@@ 15716
ventionen 15717
chairman 15718
Arzt 15719
grund 15720
Vorsitzenden 15721
aro 15722
WiFi 15723
ECH@@ 15724
Long 15725
eleg@@ 15726
Mira@@ 15727
hospitality 15728
stake 15729
russische 15730
Info@@ 15731
jün@@ 15732
rings 15733
108 15734
asset 15735
gene@@ 15736
describe 15737
Doha 15738
promising 15739
VFU 15740
mitgli@@ 15741
Andrea 15742
dé@@ 15743
rated 15744
rapporteurs 15745
platte 15746
Ged@@ 15747
Fans 15748
verkün@@ 15749
proceed 15750
Heinrich 15751
ius 15752
BAR@@ 15753
pä@@ 15754
wind@@ 15755
Geschle@@ 15756
hervorheben 15757
Ris@@ 15758
trock@@ 15759
II@@ 15760
ausschuß 15761
premium 15762
horse 15763
Frü@@ 15764
iser 15765
Commodore 15766
hi 15767
amer 15768
ettet 15769
Rek@@ 15770
grossen 15771
Lun@@ 15772
† 15773
12,@@ 15774
fantas@@ 15775
dial 15776
hopes 15777
quotas 15778
Inflation 15779
artigen 15780
zeitraum 15781
develops 15782
Verwal@@ 15783
Vertrages 15784
tain@@ 15785
sterben 15786
zahlungen 15787
consciousness 15788
grosse 15789
eable 15790
succeeded 15791
4-star 15792
NT@@ 15793
Caf@@ 15794
etary 15795
essentially 15796
investiert 15797
Andro@@ 15798
Bezirk 15799
Property 15800
gefragt 15801
ires 15802
mals 15803
ätz@@ 15804
Pixel 15805
Gut 15806
Electronic 15807
MEPs 15808
Herzegowina 15809
Regierungskonferenz 15810
releases 15811
radical 15812
journalists 15813
resp@@ 15814
Bow@@ 15815
Tun@@ 15816
judge 15817
Local 15818
Soli@@ 15819
Million 15820
sights 15821
virtually 15822
erzielten 15823
Konstruktion 15824
analo@@ 15825
kunden 15826
richtungen 15827
behavior 15828
verliehen 15829
endgültige 15830
annt 15831
posted 15832
stayed 15833
280 15834
endgültigen 15835
gratulieren 15836
günstigen 15837
Büros 15838
blan@@ 15839
mon 15840
Temperatur@@ 15841
ernannt 15842
Befehl 15843
crises 15844
Kommiss@@ 15845
Deine 15846
erung@@ 15847
ausgewo@@ 15848
Annehmlichkeiten 15849
degrees 15850
Papst 15851
mein@@ 15852
lebte 15853
favorite 15854
wes@@ 15855
lus 15856
Mittelmeer@@ 15857
1965 15858
Be 15859
Geschäften 15860
Ruf 15861
festzustellen 15862
Tiles 15863
behoben 15864
Ring 15865
Festivals 15866
Elektronik 15867
[...]
